{
  "version": "1.0",
  "truncation": null,
  "padding": null,
  "added_tokens": [
    {
      "id": 0,
      "content": "[UNK]",
      "single_word": false,
      "lstrip": false,
      "rstrip": false,
      "normalized": false,
      "special": true
    },
    {
      "id": 1,
      "content": "[PAD]",
      "single_word": false,
      "lstrip": false,
      "rstrip": false,
      "normalized": false,
      "special": true
    },
    {
      "id": 2,
      "content": "[CLS]",
      "single_word": false,
      "lstrip": false,
      "rstrip": false,
      "normalized": false,
      "special": true
    },
    {
      "id": 3,
      "content": "[SEP]",
      "single_word": false,
      "lstrip": false,
      "rstrip": false,
      "normalized": false,
      "special": true
    },
    {
      "id": 4,
      "content": "[MASK]",
      "single_word": false,
      "lstrip": false,
      "rstrip": false,
      "normalized": false,
      "special": true
    }
  ],
  "normalizer": {
    "type": "Sequence",
    "normalizers": [
      {
        "type": "NFD"
      },
      {
        "type": "Lowercase"
      },
      {
        "type": "StripAccents"
      },
      {
        "type": "Replace",
        "pattern": {
          "String": "/"
        },
        "content": " slash "
      }
    ]
  },
  "pre_tokenizer": {
    "type": "BertPreTokenizer"
  },
  "post_processor": {
    "type": "TemplateProcessing",
    "single": [
      {
        "SpecialToken": {
          "id": "[CLS]",
          "type_id": 0
        }
      },
      {
        "Sequence": {
          "id": "A",
          "type_id": 0
        }
      },
      {
        "SpecialToken": {
          "id": "[SEP]",
          "type_id": 0
        }
      }
    ],
    "pair": [
      {
        "SpecialToken": {
          "id": "[CLS]",
          "type_id": 0
        }
      },
      {
        "Sequence": {
          "id": "A",
          "type_id": 0
        }
      },
      {
        "SpecialToken": {
          "id": "[SEP]",
          "type_id": 0
        }
      },
      {
        "Sequence": {
          "id": "B",
          "type_id": 1
        }
      },
      {
        "SpecialToken": {
          "id": "[SEP]",
          "type_id": 1
        }
      }
    ],
    "special_tokens": {
      "[CLS]": {
        "id": "[CLS]",
        "ids": [
          2
        ],
        "tokens": [
          "[CLS]"
        ]
      },
      "[SEP]": {
        "id": "[SEP]",
        "ids": [
          3
        ],
        "tokens": [
          "[SEP]"
        ]
      }
    }
  },
  "decoder": {
    "type": "WordPiece",
    "prefix": "##",
    "cleanup": true
  },
  "model": {
    "type": "WordPiece",
    "unk_token": "[UNK]",
    "continuing_subword_prefix": "##",
    "max_input_chars_per_word": 100,
    "vocab": {
      "[UNK]": 0,
      "[PAD]": 1,
      "[CLS]": 2,
      "[SEP]": 3,
      "[MASK]": 4,
      "#": 5,
      "&": 6,
      "(": 7,
      ")": 8,
      "*": 9,
      "+": 10,
      "-": 11,
      ".": 12,
      "0": 13,
      "1": 14,
      "2": 15,
      "3": 16,
      "4": 17,
      "5": 18,
      "6": 19,
      "7": 20,
      "8": 21,
      "9": 22,
      ":": 23,
      "=": 24,
      "@": 25,
      "_": 26,
      "a": 27,
      "b": 28,
      "c": 29,
      "d": 30,
      "e": 31,
      "f": 32,
      "g": 33,
      "h": 34,
      "i": 35,
      "j": 36,
      "k": 37,
      "l": 38,
      "m": 39,
      "n": 40,
      "o": 41,
      "p": 42,
      "q": 43,
      "r": 44,
      "s": 45,
      "t": 46,
      "u": 47,
      "v": 48,
      "w": 49,
      "x": 50,
      "y": 51,
      "z": 52,
      "{": 53,
      "}": 54,
      "~": 55,
      "##k": 56,
      "##c": 57,
      "##q": 58,
      "##j": 59,
      "##9": 60,
      "##2": 61,
      "##1": 62,
      "##7": 63,
      "##0": 64,
      "##3": 65,
      "##4": 66,
      "##l": 67,
      "##x": 68,
      "##8": 69,
      "##f": 70,
      "##n": 71,
      "##r": 72,
      "##p": 73,
      "##u": 74,
      "##5": 75,
      "##b": 76,
      "##e": 77,
      "##a": 78,
      "##6": 79,
      "##d": 80,
      "##i": 81,
      "##v": 82,
      "##h": 83,
      "##w": 84,
      "##m": 85,
      "##g": 86,
      "##y": 87,
      "##o": 88,
      "##s": 89,
      "##t": 90,
      "##z": 91,
      "##la": 92,
      "##sh": 93,
      "##lash": 94,
      "slash": 95,
      "##ef": 96,
      "##ir": 97,
      "##ox": 98,
      "fir": 99,
      "##efox": 100,
      "firefox": 101,
      "##om": 102,
      "##ac": 103,
      "##he": 104,
      "##ache": 105,
      "cache": 106,
      "##ome": 107,
      "re": 108,
      "##d8": 109,
      "##in": 110,
      "##f2": 111,
      "cache2": 112,
      "ad": 113,
      "##lt": 114,
      "##min": 115,
      "home": 116,
      "##il": 117,
      "admin": 118,
      "##efa": 119,
      "mo": 120,
      "##2f2": 121,
      "##ult": 122,
      "##efault": 123,
      "default": 124,
      "wy": 125,
      "moz": 126,
      "##illa": 127,
      "mozilla": 128,
      "##d8o": 129,
      "wyd8o": 130,
      "wyd8o2f2": 131,
      "##ve": 132,
      "##mo": 133,
      "##move": 134,
      "remove": 135,
      "de": 136,
      "sh": 137,
      "##rg": 138,
      "##um": 139,
      "##hr": 140,
      "dev": 141,
      "shm": 142,
      "chr": 143,
      "##omi": 144,
      "org": 145,
      "chromi": 146,
      "chromium": 147,
      "##ri": 148,
      "##nt": 149,
      "##es": 150,
      "##ries": 151,
      "ent": 152,
      "entries": 153,
      "##me": 154,
      "##na": 155,
      "do": 156,
      "##omed": 157,
      "##name": 158,
      "doomed": 159,
      "rename": 160,
      "##te": 161,
      "##ea": 162,
      "cr": 163,
      "##eate": 164,
      "create": 165,
      "##ad": 166,
      "##86": 167,
      "read": 168,
      "##07": 169,
      "##33": 170,
      "##02": 171,
      "##94": 172,
      "lo": 173,
      "##56": 174,
      "##12": 175,
      "##92": 176,
      "##04": 177,
      "##54": 178,
      "##08": 179,
      "##57": 180,
      "##96": 181,
      "##03": 182,
      "##14": 183,
      "##06": 184,
      "##17": 185,
      "##16": 186,
      "##18": 187,
      "##97": 188,
      "##13": 189,
      "load": 190,
      "##da": 191,
      "##52": 192,
      "##53": 193,
      "##58": 194,
      "##93": 195,
      "##ec": 196,
      "##98": 197,
      "##fc": 198,
      "##ro": 199,
      "##42": 200,
      "##fb": 201,
      "##47": 202,
      "##0c": 203,
      "##5b": 204,
      "pro": 205,
      "##ed": 206,
      "##62": 207,
      "##43": 208,
      "##0b": 209,
      "proc": 210,
      "##1a": 211,
      "##e7": 212,
      "##5c": 213,
      "##1b": 214,
      "##e8": 215,
      "##9d": 216,
      "##f7": 217,
      "##9c": 218,
      "##0a": 219,
      "##1c": 220,
      "##eb": 221,
      "##67": 222,
      "##0d": 223,
      "##1d": 224,
      "##9b": 225,
      "##e2": 226,
      "##48": 227,
      "##32": 228,
      "##9a": 229,
      "##5a": 230,
      "##5d": 231,
      "##38": 232,
      "##f8": 233,
      "##66": 234,
      "##fd": 235,
      "##fa": 236,
      "##37": 237,
      "##f6": 238,
      "##e4": 239,
      "##46": 240,
      "##77": 241,
      "##91": 242,
      "##36": 243,
      "##e6": 244,
      "##82": 245,
      "##ib": 246,
      "##95": 247,
      "##72": 248,
      "##bb": 249,
      "##01": 250,
      "##f3": 251,
      "##44": 252,
      "##ba": 253,
      "##78": 254,
      "lib": 255,
      "##e3": 256,
      "##05": 257,
      "##dc": 258,
      "##22": 259,
      "##4c": 260,
      "##76": 261,
      "##4a": 262,
      "##ta": 263,
      "##db": 264,
      "##88": 265,
      "##on": 266,
      "##ar": 267,
      "##99": 268,
      "##00": 269,
      "##11": 270,
      "##cc": 271,
      "##er": 272,
      "##4b": 273,
      "##9f": 274,
      "##ca": 275,
      "##55": 276,
      "##rite": 277,
      "write": 278,
      "ma": 279,
      "##d2": 280,
      "##d6": 281,
      "##3b": 282,
      "##3a": 283,
      "##0f": 284,
      "##sr": 285,
      "##c2": 286,
      "##8b": 287,
      "##d7": 288,
      "##09": 289,
      "##51": 290,
      "cache2i": 291,
      "ap": 292,
      "##ee": 293,
      "##3c": 294,
      "##op": 295,
      "##87": 296,
      "usr": 297,
      "##0e": 298,
      "##b2": 299,
      "##a7": 300,
      "##ff": 301,
      "##dd": 302,
      "##a2": 303,
      "##ab": 304,
      "sta": 305,
      "12": 306,
      "stat": 307,
      "##c6": 308,
      "##inu": 309,
      "##4d": 310,
      "##1f": 311,
      "##b6": 312,
      "##10": 313,
      "##15": 314,
      "##83": 315,
      "##sk": 316,
      "##a6": 317,
      "##4f": 318,
      "##90": 319,
      "##e5": 320,
      "##26": 321,
      "##c8": 322,
      "up": 323,
      "##73": 324,
      "##mp": 325,
      "##cb": 326,
      "##df": 327,
      "upda": 328,
      "##50": 329,
      "##e0": 330,
      "##a8": 331,
      "update": 332,
      "##27": 333,
      "64": 334,
      "##34": 335,
      "##68": 336,
      "##19": 337,
      "##f5": 338,
      "##c7": 339,
      "##nu": 340,
      "##b8": 341,
      "##b7": 342,
      "so": 343,
      "var": 344,
      "##e1": 345,
      "##or": 346,
      "##bc": 347,
      "##inux": 348,
      "##59": 349,
      "##74": 350,
      "linux": 351,
      "##b4": 352,
      "x86": 353,
      "##e9": 354,
      "##63": 355,
      "##ps": 356,
      "##3d": 357,
      "##id": 358,
      "##41": 359,
      "gnu": 360,
      "##7a": 361,
      "##bd": 362,
      "##24": 363,
      "##28": 364,
      "py": 365,
      "##top": 366,
      "##aa": 367,
      "##nd": 368,
      "desk": 369,
      "desktop": 370,
      "##39": 371,
      "##f4": 372,
      "##f0": 373,
      "16": 374,
      "##84": 375,
      "ssh": 376,
      "##ti": 377,
      "sshd": 378,
      "##cd": 379,
      "17": 380,
      "##8d": 381,
      "apt": 382,
      "##are": 383,
      "##ns": 384,
      "##c3": 385,
      "app": 386,
      "##5e": 387,
      "##a4": 388,
      "##5f": 389,
      "##th": 390,
      "##1e": 391,
      "##af": 392,
      "##49": 393,
      "##2c": 394,
      "##21": 395,
      "##7b": 396,
      "man": 397,
      "maps": 398,
      "##81": 399,
      "tmp": 400,
      "##ys": 401,
      "##23": 402,
      "##f9": 403,
      "##ap": 404,
      "##7d": 405,
      "##45": 406,
      "##8c": 407,
      "##fi": 408,
      "##9e": 409,
      "##40": 410,
      "##6c": 411,
      "##8a": 412,
      "##2a": 413,
      "share": 414,
      "13": 415,
      "##ll": 416,
      "##6a": 417,
      "##st": 418,
      "##fe": 419,
      "18": 420,
      "##7c": 421,
      "##et": 422,
      "##6d": 423,
      "##25": 424,
      "##31": 425,
      "##61": 426,
      "##3f": 427,
      "##hu": 428,
      "##6b": 429,
      "##30": 430,
      "##thon": 431,
      "##cf": 432,
      "no": 433,
      "##35": 434,
      "##85": 435,
      "##69": 436,
      "##64": 437,
      "top": 438,
      "##b1": 439,
      "##fo": 440,
      "sys": 441,
      "##ra": 442,
      "##79": 443,
      "##bf": 444,
      "##c4": 445,
      "##ce": 446,
      "##89": 447,
      "14": 448,
      "##c9": 449,
      "##2b": 450,
      "ca": 451,
      "##f1": 452,
      "noti": 453,
      "##api": 454,
      "xapi": 455,
      "pyc": 456,
      "20": 457,
      "com": 458,
      "##d5": 459,
      "##7f": 460,
      "##d4": 461,
      "##se": 462,
      "##71": 463,
      "##75": 464,
      "rm": 465,
      "log": 466,
      "##8e": 467,
      "##20": 468,
      "thu": 469,
      "##nder": 470,
      "##ird": 471,
      "##29": 472,
      "##bird": 473,
      "##65": 474,
      "##2d": 475,
      "##a5": 476,
      "##80": 477,
      "thunder": 478,
      "thunderbird": 479,
      "##ae": 480,
      "ins": 481,
      "##b3": 482,
      "con": 483,
      "##fier": 484,
      "##133": 485,
      "insta": 486,
      "install": 487,
      "##c5": 488,
      "##a0": 489,
      "##60": 490,
      "##b5": 491,
      "10": 492,
      "##4e": 493,
      "notifier": 494,
      "##inuid": 495,
      "loginuid": 496,
      "##tl": 497,
      "##d1": 498,
      "##rgo": 499,
      "##c1": 500,
      "19": 501,
      "##tc": 502,
      "##d3": 503,
      "cargo": 504,
      "conf": 505,
      "##de": 506,
      "##118": 507,
      "##a9": 508,
      "##70": 509,
      "##py": 510,
      "##be": 511,
      "##b0": 512,
      "##bo": 513,
      "##ww": 514,
      "##a1": 515,
      "##le": 516,
      "##us": 517,
      "15": 518,
      "##wk": 519,
      "##it": 520,
      "ta": 521,
      "sc": 522,
      "##info": 523,
      "##3e": 524,
      "11": 525,
      "##pv": 526,
      "##754": 527,
      "##tk": 528,
      "##ag": 529,
      "mandb": 530,
      "di": 531,
      "##b9": 532,
      "##2f": 533,
      "##d9": 534,
      "##ck": 535,
      "python": 536,
      "34": 537,
      "##da8": 538,
      "ba": 539,
      "##517": 540,
      "##ig": 541,
      "##457": 542,
      "##863": 543,
      "##one": 544,
      "task": 545,
      "##unt": 546,
      "##d0": 547,
      "##8f": 548,
      "##332": 549,
      "##6e": 550,
      "##ex": 551,
      "##a3": 552,
      "##7e": 553,
      "##c0": 554,
      "loca": 555,
      "##077": 556,
      "##6f": 557,
      "##2e": 558,
      "##el": 559,
      "##124": 560,
      "##ol": 561,
      "python3": 562,
      "##ort": 563,
      "##102": 564,
      "##nts": 565,
      "##ma": 566,
      "sa": 567,
      "##pt": 568,
      "##fce4": 569,
      "##9fc": 570,
      "min": 571,
      "statm": 572,
      "54": 573,
      "net": 574,
      "##063": 575,
      "##bj": 576,
      "##982": 577,
      "##956": 578,
      "dist": 579,
      "##866": 580,
      "##mg": 581,
      "etc": 582,
      "##ion": 583,
      "##e9d": 584,
      "##922": 585,
      "##re": 586,
      "##034": 587,
      "##0fc": 588,
      "fo": 589,
      "##lo": 590,
      "##ore": 591,
      "37": 592,
      "##326": 593,
      "##ss": 594,
      "##kx": 595,
      "##156": 596,
      "##972": 597,
      "##1cc": 598,
      "##075": 599,
      "##966": 600,
      "##068": 601,
      "xfce4": 602,
      "##027": 603,
      "hbo": 604,
      "##python": 605,
      "##092": 606,
      "##ws": 607,
      "cpython": 608,
      "##d0b": 609,
      "##kg": 610,
      "##057": 611,
      "##932": 612,
      "www": 613,
      "##li": 614,
      "era": 615,
      "##tw": 616,
      "##seme": 617,
      "eraseme": 618,
      "##ng": 619,
      "##186": 620,
      "mk": 621,
      "##ead": 622,
      "##adb": 623,
      "##d88": 624,
      "##553": 625,
      "##f52": 626,
      "##596": 627,
      "local": 628,
      "##ht": 629,
      "##327": 630,
      "bin": 631,
      "##ut": 632,
      "pycache": 633,
      "##193": 634,
      "##707": 635,
      "##ffd": 636,
      "##032": 637,
      "##108": 638,
      "##554": 639,
      "##794": 640,
      "##e04": 641,
      "##574": 642,
      "ipv": 643,
      "##fba": 644,
      "##fy": 645,
      "##158": 646,
      "##up": 647,
      "##acd": 648,
      "##927": 649,
      "ex": 650,
      "##533": 651,
      "salt": 652,
      "apport": 653,
      "bash": 654,
      "##ul": 655,
      "##dl": 656,
      "##317": 657,
      "##582": 658,
      "##hi": 659,
      "##ot": 660,
      "##f14": 661,
      "##088": 662,
      "##0b6": 663,
      "minion": 664,
      "awk": 665,
      "##of": 666,
      "##ur": 667,
      "##9ed": 668,
      "##35b": 669,
      "##512": 670,
      "##977": 671,
      "##562": 672,
      "##eec": 673,
      "##994": 674,
      "##363": 675,
      "##cd8": 676,
      "##597": 677,
      "##f07": 678,
      "##052": 679,
      "##d76": 680,
      "##ty": 681,
      "##2ed": 682,
      "##984": 683,
      "##926": 684,
      "##temp": 685,
      "##11b": 686,
      "mount": 687,
      "##127": 688,
      "mktemp": 689,
      "##378": 690,
      "##076": 691,
      "##ing": 692,
      "##pg": 693,
      "##0bd": 694,
      "##036": 695,
      "uid": 696,
      "##546": 697,
      "map": 698,
      "##uz": 699,
      "##ml": 700,
      "##f53": 701,
      "##0c2": 702,
      "##f94": 703,
      "##ack": 704,
      "##ac2": 705,
      "##996": 706,
      "##e3c": 707,
      "oom": 708,
      "##acb": 709,
      "##138": 710,
      "##342": 711,
      "##9d3": 712,
      "adj": 713,
      "##172": 714,
      "##ko": 715,
      "mountinfo": 716,
      "##302": 717,
      "##518": 718,
      "##eaf": 719,
      "##0c5": 720,
      "##al": 721,
      "score": 722,
      "##9a2": 723,
      "##tr": 724,
      "##923": 725,
      "##if": 726,
      "##536": 727,
      "##673": 728,
      "##003": 729,
      "##534": 730,
      "##eed": 731,
      "gtk": 732,
      "##106": 733,
      "##082": 734,
      "##572": 735,
      "##916": 736,
      "##ni": 737,
      "sysc": 738,
      "##f1b": 739,
      "pc": 740,
      "##rc": 741,
      "##014": 742,
      "##136": 743,
      "##714": 744,
      "##0dd": 745,
      "##503": 746,
      "##566": 747,
      "##029": 748,
      "##194": 749,
      "##f26": 750,
      "##d7f": 751,
      "##854": 752,
      "##iw": 753,
      "##ow": 754,
      "da": 755,
      "##998": 756,
      "##08a": 757,
      "##pu": 758,
      "##9f7": 759,
      "##004": 760,
      "##585": 761,
      "26": 762,
      "sysctl": 763,
      "##e47": 764,
      "##864": 765,
      "##92a": 766,
      "##762": 767,
      "##144": 768,
      "##93f": 769,
      "##0c9": 770,
      "##ms": 771,
      "##041": 772,
      "##508": 773,
      "##e6a": 774,
      "##fs": 775,
      "##pe": 776,
      "##1ab": 777,
      "##ff6": 778,
      "##ug": 779,
      "##532": 780,
      "##038": 781,
      "##nc": 782,
      "##957": 783,
      "##1a9": 784,
      "##e9b": 785,
      "##zy": 786,
      "##5e7": 787,
      "##394": 788,
      "##522": 789,
      "##333": 790,
      "##502": 791,
      "##592": 792,
      "##wg": 793,
      "##00d": 794,
      "##043": 795,
      "##078": 796,
      "##902": 797,
      "##173": 798,
      "##4fc": 799,
      "##ud": 800,
      "db": 801,
      "##c9c": 802,
      "##f716": 803,
      "##0bc": 804,
      "##0ad": 805,
      "##006": 806,
      "##0cb": 807,
      "##eda": 808,
      "##04b2": 809,
      "##056": 810,
      "##d77": 811,
      "##162": 812,
      "##pa": 813,
      "##c04": 814,
      "##1ba": 815,
      "##f78": 816,
      "##997": 817,
      "##02b": 818,
      "##ru": 819,
      "##672": 820,
      "##087": 821,
      "##526": 822,
      "##178": 823,
      "##e4a": 824,
      "##962": 825,
      "##506": 826,
      "##126": 827,
      "##182": 828,
      "##174": 829,
      "##ix": 830,
      "##e11": 831,
      "##nz": 832,
      "##166": 833,
      "##588": 834,
      "##ec7": 835,
      "##0a8": 836,
      "##15c": 837,
      "##137": 838,
      "##628": 839,
      "##1d6": 840,
      "137": 841,
      "##007": 842,
      "##583": 843,
      "ind": 844,
      "##094": 845,
      "##ew": 846,
      "##157": 847,
      "22": 848,
      "56": 849,
      "##qj": 850,
      "##548": 851,
      "##0c8": 852,
      "##933": 853,
      "##ic": 854,
      "##504": 855,
      "##mj": 856,
      "##b32": 857,
      "24": 858,
      "##ry": 859,
      "##47a": 860,
      "##e8b": 861,
      "##e83a": 862,
      "##bae": 863,
      "##1d8": 864,
      "##feb": 865,
      "##0157": 866,
      "##5db": 867,
      "##nj": 868,
      "##is": 869,
      "##vx": 870,
      "##53c": 871,
      "##3c0": 872,
      "##ess": 873,
      "##527": 874,
      "##4fb": 875,
      "##vg": 876,
      "##qz": 877,
      "##753": 878,
      "##5da": 879,
      "##9f3": 880,
      "##hg": 881,
      "##ecd": 882,
      "##436": 883,
      "##edc": 884,
      "zone": 885,
      "##acc": 886,
      "##184": 887,
      "##01c": 888,
      "##017": 889,
      "##542": 890,
      "##008": 891,
      "##9bb": 892,
      "##mx": 893,
      "##qx": 894,
      "##013": 895,
      "##no": 896,
      "##e644": 897,
      "##qk": 898,
      "ps": 899,
      "##vl": 900,
      "##qg": 901,
      "##5f3": 902,
      "147": 903,
      "66": 904,
      "##mt": 905,
      "##968": 906,
      "##c94": 907,
      "##ux": 908,
      "##per": 909,
      "##122": 910,
      "##qy": 911,
      "##hj": 912,
      "##a02": 913,
      "##117": 914,
      "##f92": 915,
      "##963": 916,
      "##vy": 917,
      "##55c": 918,
      "##56c": 919,
      "##0f3": 920,
      "##438": 921,
      "##071": 922,
      "##d8b": 923,
      "##482": 924,
      "##098": 925,
      "##mz": 926,
      "##ny": 927,
      "##dba": 928,
      "##vj": 929,
      "##ef7": 930,
      "obj": 931,
      "##074": 932,
      "##95d": 933,
      "##9cc": 934,
      "comp": 935,
      "##336": 936,
      "zoneinfo": 937,
      "##nx": 938,
      "##ff8": 939,
      "##nk": 940,
      "index": 941,
      "##hk": 942,
      "##868": 943,
      "##e32": 944,
      "##f5d": 945,
      "##152": 946,
      "##nl": 947,
      "##ed2": 948,
      "##59b": 949,
      "##rl": 950,
      "##97d": 951,
      "##f16": 952,
      "##062": 953,
      "##hy": 954,
      "##544": 955,
      "##ia": 956,
      "##e66": 957,
      "##978": 958,
      "##io": 959,
      "##134": 960,
      "##vk": 961,
      "##48d": 962,
      "##5ac": 963,
      "##94c": 964,
      "##586": 965,
      "##my": 966,
      "##936": 967,
      "##hx": 968,
      "##fbd": 969,
      "##e42": 970,
      "##95c": 971,
      "##zg": 972,
      "##0fa": 973,
      "##09c": 974,
      "##con": 975,
      "##054": 976,
      "##e4d": 977,
      "##nw": 978,
      "##0c6": 979,
      "##90d": 980,
      "##946": 981,
      "##037": 982,
      "97": 983,
      "##01b": 984,
      "##ip": 985,
      "##heck": 986,
      "##437": 987,
      "##4ded": 988,
      "##954": 989,
      "28": 990,
      "##dab": 991,
      "##0f8": 992,
      "##ffb": 993,
      "##d1a": 994,
      "##fa2": 995,
      "##onents": 996,
      "##mk": 997,
      "##06b": 998,
      "##jg": 999,
      "21": 1000,
      "##qu": 1001,
      "##da7": 1002,
      "##qs": 1003,
      "##556": 1004,
      "##146": 1005,
      "58": 1006,
      "##5a2": 1007,
      "##po": 1008,
      "##qw": 1009,
      "##0f6": 1010,
      "##hz": 1011,
      "##ts": 1012,
      "##vu": 1013,
      "167": 1014,
      "92": 1015,
      "##1c7": 1016,
      "##862": 1017,
      "##ecc": 1018,
      "##9df": 1019,
      "##e67": 1020,
      "##ad2": 1021,
      "##e2b": 1022,
      "##eac": 1023,
      "##fc78": 1024,
      "##416": 1025,
      "##0b7": 1026,
      "##594": 1027,
      "##552": 1028,
      "##06a": 1029,
      "##e33": 1030,
      "##1422": 1031,
      "check": 1032,
      "##093": 1033,
      "##97a": 1034,
      "##468": 1035,
      "##073": 1036,
      "##573": 1037,
      "components": 1038,
      "##132": 1039,
      "142": 1040,
      "##547": 1041,
      "##bbb": 1042,
      "##096": 1043,
      "##f29": 1044,
      "##9bd": 1045,
      "##og": 1046,
      "##fb66": 1047,
      "##rt": 1048,
      "##iz": 1049,
      "##vp": 1050,
      "##c1d": 1051,
      "##jk": 1052,
      "##vw": 1053,
      "##f8c": 1054,
      "##992": 1055,
      "##ly": 1056,
      "##0e118": 1057,
      "##022": 1058,
      "##50c": 1059,
      "##eeb": 1060,
      "##ec075": 1061,
      "##d2133": 1062,
      "12bae": 1063,
      "##077124": 1064,
      "##0b6e644": 1065,
      "##0c9077124": 1066,
      "##fb66d2133": 1067,
      "##0e118ec075": 1068,
      "12bae0e118ec075": 1069,
      "##0b6e644fb66d2133": 1070,
      "12bae0e118ec0750b6e644fb66d2133": 1071,
      "12bae0e118ec0750b6e644fb66d21330c9077124": 1072,
      "##19c": 1073,
      "##iy": 1074,
      "##128": 1075,
      "##efb": 1076,
      "##058": 1077,
      "##ok": 1078,
      "##9af": 1079,
      "##uk": 1080,
      "36": 1081,
      "##0d2": 1082,
      "##eab": 1083,
      "##537": 1084,
      "##1fb": 1085,
      "##fdb": 1086,
      "##ef43": 1087,
      "##4a2": 1088,
      "dom": 1089,
      "##jy": 1090,
      "##xx": 1091,
      "##5ca": 1092,
      "##lz": 1093,
      "##f62": 1094,
      "##5e8": 1095,
      "##vs": 1096,
      "176": 1097,
      "##558": 1098,
      "##ad6": 1099,
      "fonts": 1100,
      "##09d": 1101,
      "63": 1102,
      "##94f8": 1103,
      "##1a8": 1104,
      "##1cb": 1105,
      "##e92": 1106,
      "##08c": 1107,
      "##vz": 1108,
      "##033": 1109,
      "##11c": 1110,
      "##fd6": 1111,
      "##904": 1112,
      "##vi": 1113,
      "##ec2": 1114,
      "##jz": 1115,
      "##1e7": 1116,
      "##hs": 1117,
      "##1a6": 1118,
      "##hw": 1119,
      "##377": 1120,
      "117": 1121,
      "##np": 1122,
      "##rs": 1123,
      "##428": 1124,
      "32": 1125,
      "##ea6": 1126,
      "##0d7": 1127,
      "##ind": 1128,
      "##e26": 1129,
      "##917": 1130,
      "##ho": 1131,
      "##jw": 1132,
      "##462": 1133,
      "##ac6": 1134,
      "##12b": 1135,
      "##dx": 1136,
      "##948": 1137,
      "##386": 1138,
      "##tp": 1139,
      "52": 1140,
      "##45b": 1141,
      "##567": 1142,
      "##rx": 1143,
      "##57c": 1144,
      "##066": 1145,
      "##88fc": 1146,
      "172": 1147,
      "##116": 1148,
      "##19a": 1149,
      "##fg": 1150,
      "##947": 1151,
      "##qp": 1152,
      "##dk": 1153,
      "##338": 1154,
      "##822": 1155,
      "##f4c": 1156,
      "##tg": 1157,
      "##fb6": 1158,
      "##5a8": 1159,
      "ub": 1160,
      "##496": 1161,
      "##e7c": 1162,
      "##ik": 1163,
      "##528": 1164,
      "##456": 1165,
      "##01d": 1166,
      "##e0a": 1167,
      "148": 1168,
      "177": 1169,
      "##jx": 1170,
      "##rk": 1171,
      "##mw": 1172,
      "##e7a": 1173,
      "83": 1174,
      "##ql": 1175,
      "##hc": 1176,
      "##hl": 1177,
      "##42a": 1178,
      "23": 1179,
      "##1ef": 1180,
      "##591": 1181,
      "##e1a": 1182,
      "##du": 1183,
      "##514": 1184,
      "##123": 1185,
      "##fdc": 1186,
      "##rp": 1187,
      "##107": 1188,
      "##49d": 1189,
      "##86e": 1190,
      "##at": 1191,
      "##9b2": 1192,
      "##7278": 1193,
      "##493": 1194,
      "##988": 1195,
      "##37c": 1196,
      "##e7d": 1197,
      "##bl": 1198,
      "##e58": 1199,
      "67": 1200,
      "##ed7": 1201,
      "##95a": 1202,
      "##002": 1203,
      "##042": 1204,
      "##c6d": 1205,
      "pack": 1206,
      "##51a": 1207,
      "##1ca": 1208,
      "##9b8": 1209,
      "##dc8": 1210,
      "##327f6": 1211,
      "##928": 1212,
      "61422": 1213,
      "##188": 1214,
      "##98fba": 1215,
      "##5a9fc": 1216,
      "##9e0157": 1217,
      "##acd327f6": 1218,
      "##d7f98fba": 1219,
      "##88fcd7f98fba": 1220,
      "packag": 1221,
      "614225a9fc": 1222,
      "##9e015788fcd7f98fba": 1223,
      "##acd327f64ded": 1224,
      "614225a9fc9e015788fcd7f98fba": 1225,
      "614225a9fc9e015788fcd7f98fbaacd327f64ded": 1226,
      "##e18": 1227,
      "##17b": 1228,
      "##fb2": 1229,
      "em": 1230,
      "##e36": 1231,
      "##nag": 1232,
      "##rw": 1233,
      "##168": 1234,
      "##2195": 1235,
      "##tz": 1236,
      "##hp": 1237,
      "##914": 1238,
      "##494": 1239,
      "##ad3": 1240,
      "##d92": 1241,
      "##mc": 1242,
      "##0c7": 1243,
      "##uy": 1244,
      "##576": 1245,
      "##097": 1246,
      "##52a": 1247,
      "##622": 1248,
      "##e09d": 1249,
      "##bb8": 1250,
      "##4dc": 1251,
      "##5cb3": 1252,
      "##112": 1253,
      "##td": 1254,
      "202": 1255,
      "##9e2": 1256,
      "0517": 1257,
      "182": 1258,
      "##os": 1259,
      "##d8e9d": 1260,
      "##fcef43": 1261,
      "##ba7": 1262,
      "##cc7278": 1263,
      "##574d8e9d": 1264,
      "##9d3574d8e9d": 1265,
      "##edc3c0": 1266,
      "##a029d3574d8e9d": 1267,
      "##5cb3fcef43": 1268,
      "0517a029d3574d8e9d": 1269,
      "##cc72785cb3fcef43": 1270,
      "0517a029d3574d8e9dcc72785cb3fcef43": 1271,
      "0517a029d3574d8e9dcc72785cb3fcef43edc3c0": 1272,
      "##nel": 1273,
      "##e5f": 1274,
      "##fb707": 1275,
      "##e4c": 1276,
      "##bb0c5": 1277,
      "##da804b2": 1278,
      "##0fcbb0c5": 1279,
      "37fb707": 1280,
      "##f530fcbb0c5": 1281,
      "##e83a326": 1282,
      "##2195da804b2": 1283,
      "##e09d2195da804b2": 1284,
      "37fb707f530fcbb0c5": 1285,
      "##e09d2195da804b2e83a326": 1286,
      "37fb707f530fcbb0c5e09d2195da804b2e83a326": 1287,
      "##9f6": 1288,
      "##4da": 1289,
      "##0e1": 1290,
      "js": 1291,
      "##018": 1292,
      "##07d": 1293,
      "##96a": 1294,
      "##100a": 1295,
      "##86347": 1296,
      "##uw": 1297,
      "##a5b": 1298,
      "##zz": 1299,
      "##563": 1300,
      "##418": 1301,
      "##00a": 1302,
      "##oy": 1303,
      "ld": 1304,
      "##bfa": 1305,
      "2d0b": 1306,
      "##f47": 1307,
      "##5688": 1308,
      "##3b100a": 1309,
      "##b4fc78": 1310,
      "##754c6d": 1311,
      "##1cc86347": 1312,
      "##d76b4fc78": 1313,
      "##ff8d76b4fc78": 1314,
      "2d0b3b100a": 1315,
      "##754c6d1cc86347": 1316,
      "##ff8d76b4fc78f716": 1317,
      "2d0b3b100a754c6d1cc86347": 1318,
      "2d0b3b100a754c6d1cc86347ff8d76b4fc78f716": 1319,
      "##1e4": 1320,
      "##un": 1321,
      "##qv": 1322,
      "##kxh": 1323,
      "114": 1324,
      "27": 1325,
      "in": 1326,
      "##913": 1327,
      "##516": 1328,
      "##ain": 1329,
      "##5d7": 1330,
      "sche": 1331,
      "##5fa": 1332,
      "##d43": 1333,
      "122": 1334,
      "##072": 1335,
      "##qc": 1336,
      "ipv4": 1337,
      "##fc8": 1338,
      "##e28": 1339,
      "##91d": 1340,
      "##sb": 1341,
      "##tx": 1342,
      "##0cd": 1343,
      "##baa": 1344,
      "102": 1345,
      "##ent": 1346,
      "##867": 1347,
      "132": 1348,
      "##pk": 1349,
      "##dg": 1350,
      "##mi": 1351,
      "196": 1352,
      "9rg": 1353,
      "##va": 1354,
      "##hb": 1355,
      "##39d": 1356,
      "7b": 1357,
      "##d2b": 1358,
      "194": 1359,
      "##efd": 1360,
      "##ec8": 1361,
      "2018": 1362,
      "##ba2": 1363,
      "##24kxh": 1364,
      "9rg24kxh": 1365,
      "104": 1366,
      "##114": 1367,
      "##f56": 1368,
      "##ine": 1369,
      "##nager": 1370,
      "116": 1371,
      "img": 1372,
      "138": 1373,
      "87": 1374,
      "##918": 1375,
      "##064": 1376,
      "##772": 1377,
      "##cfc": 1378,
      "##0ed": 1379,
      "##ad7": 1380,
      "a2": 1381,
      "##937": 1382,
      "##rz": 1383,
      "##1c3": 1384,
      "157": 1385,
      "##04c": 1386,
      "##976": 1387,
      "##fa3": 1388,
      "08": 1389,
      "46": 1390,
      "##49c": 1391,
      "##e68": 1392,
      "##952": 1393,
      "##sy": 1394,
      "##080": 1395,
      "##e73": 1396,
      "162": 1397,
      "##eu": 1398,
      "##986": 1399,
      "##833": 1400,
      "##f54": 1401,
      "##50f": 1402,
      "##ha": 1403,
      "##09a": 1404,
      "##511": 1405,
      "##08b": 1406,
      "143": 1407,
      "##pz": 1408,
      "##9fd": 1409,
      "##51b": 1410,
      "libx": 1411,
      "ab": 1412,
      "##d38": 1413,
      "##f9b": 1414,
      "##vc": 1415,
      "##tf": 1416,
      "##ed6": 1417,
      "86": 1418,
      "##ou": 1419,
      "##e03": 1420,
      "##227": 1421,
      "##4eb": 1422,
      "##bec": 1423,
      "##xg": 1424,
      "##find": 1425,
      "96": 1426,
      "pid": 1427,
      "##jj": 1428,
      "##e3b": 1429,
      "106": 1430,
      "##e96": 1431,
      "##ea9": 1432,
      "##4a6": 1433,
      "103": 1434,
      "##qq": 1435,
      "##fad": 1436,
      "##vd": 1437,
      "##91b": 1438,
      "##453": 1439,
      "##pc": 1440,
      "##ey": 1441,
      "##e891": 1442,
      "##by": 1443,
      "##im": 1444,
      "##od": 1445,
      "##ddc": 1446,
      "##abc": 1447,
      "appfind": 1448,
      "appfinder": 1449,
      "##951": 1450,
      "152": 1451,
      "##wy": 1452,
      "##oz": 1453,
      "##9d7": 1454,
      "##f33": 1455,
      "##5ed": 1456,
      "##tu": 1457,
      "##906": 1458,
      "##f86": 1459,
      "##987": 1460,
      "##5ab": 1461,
      "##0ad8": 1462,
      "##950": 1463,
      "##44b": 1464,
      "##a47": 1465,
      "##139": 1466,
      "f8": 1467,
      "##em": 1468,
      "##e8f": 1469,
      "##ja": 1470,
      "##4cc": 1471,
      "##1ec": 1472,
      "pidof": 1473,
      "##5f2": 1474,
      "##e94": 1475,
      "##1fa": 1476,
      "##1b6": 1477,
      "##ada": 1478,
      "##538": 1479,
      "204": 1480,
      "##px": 1481,
      "##fig": 1482,
      "##untu": 1483,
      "domain": 1484,
      "212": 1485,
      "##qa": 1486,
      "##557": 1487,
      "##9c7": 1488,
      "##def": 1489,
      "74": 1490,
      "##40a": 1491,
      "##fk": 1492,
      "##52c": 1493,
      "##jl": 1494,
      "##4cf": 1495,
      "##gz": 1496,
      "##028": 1497,
      "##fec": 1498,
      "##e93": 1499,
      "##rows": 1500,
      "##pw": 1501,
      "##js": 1502,
      "98": 1503,
      "##907": 1504,
      "##942": 1505,
      "##fl": 1506,
      "##0ba": 1507,
      "ubuntu": 1508,
      "##e2a": 1509,
      "72": 1510,
      "##51d": 1511,
      "##vm": 1512,
      "##f67": 1513,
      "##130": 1514,
      "##ight": 1515,
      "##ed8": 1516,
      "197": 1517,
      "##nr": 1518,
      "##bg": 1519,
      "##084": 1520,
      "##472": 1521,
      "##668": 1522,
      "##pl": 1523,
      "##12d": 1524,
      "fil": 1525,
      "##fz": 1526,
      "##58a": 1527,
      "##105": 1528,
      "##ec6": 1529,
      "##da6": 1530,
      "133": 1531,
      "##154": 1532,
      "##223": 1533,
      "ipv6": 1534,
      "154": 1535,
      "##c27": 1536,
      "178": 1537,
      "ch": 1538,
      "##a1d": 1539,
      "cm": 1540,
      "##1f7": 1541,
      "##to": 1542,
      "sof": 1543,
      "##373": 1544,
      "##efc": 1545,
      "##142": 1546,
      "206": 1547,
      "##454": 1548,
      "##40b": 1549,
      "##fe4": 1550,
      "##1a7": 1551,
      "status": 1552,
      "112": 1553,
      "##0e8": 1554,
      "##348": 1555,
      "##9db": 1556,
      "##59c": 1557,
      "76": 1558,
      "##bk": 1559,
      "##vr": 1560,
      "##wz": 1561,
      "##5c7": 1562,
      "ker": 1563,
      "##046": 1564,
      "manager": 1565,
      "53": 1566,
      "##vo": 1567,
      "##f7c": 1568,
      "##59a": 1569,
      "##5c2": 1570,
      "77": 1571,
      "##jc": 1572,
      "##e13": 1573,
      "##wx": 1574,
      "##578": 1575,
      "##187": 1576,
      "##9914": 1577,
      "##053": 1578,
      "##gr": 1579,
      "##52d": 1580,
      "packages": 1581,
      "##958": 1582,
      "##ui": 1583,
      "##bz": 1584,
      "##ee2": 1585,
      "softw": 1586,
      "##423": 1587,
      "notify": 1588,
      "68": 1589,
      "##1ad": 1590,
      "##fx": 1591,
      "##da2": 1592,
      "##ecf": 1593,
      "156": 1594,
      "##99a": 1595,
      "kernel": 1596,
      "##b97": 1597,
      "##mq": 1598,
      "##d63": 1599,
      "193": 1600,
      "##hread": 1601,
      "##0d6": 1602,
      "##9fa": 1603,
      "##ne": 1604,
      "##5b7": 1605,
      "##1da": 1606,
      "##0ef": 1607,
      "##5e9": 1608,
      "##38d": 1609,
      "##726": 1610,
      "##5be": 1611,
      "##cd7": 1612,
      "##5f8": 1613,
      "##5d6": 1614,
      "##dy": 1615,
      "##5bb": 1616,
      "##192": 1617,
      "##07c": 1618,
      "##67c": 1619,
      "##95f": 1620,
      "##103": 1621,
      "207": 1622,
      "208": 1623,
      "##e3a": 1624,
      "##4b8": 1625,
      "88": 1626,
      "##0ea": 1627,
      "##d87": 1628,
      "##rep": 1629,
      "##nq": 1630,
      "##ee6": 1631,
      "188": 1632,
      "##vq": 1633,
      "57": 1634,
      "##uu": 1635,
      "##f2d": 1636,
      "192": 1637,
      "##pp": 1638,
      "##593": 1639,
      "##089": 1640,
      "##8bd": 1641,
      "201804": 1642,
      "software": 1643,
      "##sg": 1644,
      "##bbc": 1645,
      "##tion": 1646,
      "##hq": 1647,
      "##kk": 1648,
      "##32f": 1649,
      "##age": 1650,
      "##4d6": 1651,
      "##b58": 1652,
      "##c66": 1653,
      "##0e6": 1654,
      "##9cb": 1655,
      "##488": 1656,
      "##hm": 1657,
      "##5bc": 1658,
      "##fw": 1659,
      "##f96": 1660,
      "##b57": 1661,
      "##hd": 1662,
      "##026": 1663,
      "##f6b": 1664,
      "##7a7": 1665,
      "##e53": 1666,
      "##12a": 1667,
      "118": 1668,
      "##0d3": 1669,
      "##9eb": 1670,
      "##5ad": 1671,
      "##sx": 1672,
      "##086": 1673,
      "##33a": 1674,
      "##0ec": 1675,
      "##ij": 1676,
      "##044": 1677,
      "notifyd": 1678,
      "##bw": 1679,
      "##d83": 1680,
      "##a1c": 1681,
      "##153": 1682,
      "##4aa": 1683,
      "d4": 1684,
      "##905": 1685,
      "##fj": 1686,
      "##bx": 1687,
      "##b72": 1688,
      "##52b": 1689,
      "dp": 1690,
      "##e62": 1691,
      "158": 1692,
      "##901": 1693,
      "##e37": 1694,
      "##vt": 1695,
      "##86c": 1696,
      "##ec3": 1697,
      "##9d6": 1698,
      "##577": 1699,
      "##98f": 1700,
      "##66c": 1701,
      "##5af": 1702,
      "2a": 1703,
      "##kz": 1704,
      "##e05": 1705,
      "##0a2": 1706,
      "186": 1707,
      "136": 1708,
      "##bu": 1709,
      "##sl": 1710,
      "##f7b": 1711,
      "##1c1a": 1712,
      "pa": 1713,
      "##1f8": 1714,
      "##eb2": 1715,
      "128": 1716,
      "##666": 1717,
      "##422": 1718,
      "##f72": 1719,
      "##e88": 1720,
      "##598": 1721,
      "##5aa": 1722,
      "##e56": 1723,
      "##953": 1724,
      "##5d1": 1725,
      "##048": 1726,
      "proper": 1727,
      "##nm": 1728,
      "##ay": 1729,
      "##e7b": 1730,
      "107": 1731,
      "##nv": 1732,
      "##gg": 1733,
      "##82a": 1734,
      "108": 1735,
      "33": 1736,
      "##e4f": 1737,
      "153": 1738,
      "##nh": 1739,
      "##524": 1740,
      "##cc2": 1741,
      "##we": 1742,
      "##903": 1743,
      "##lea": 1744,
      "##78c": 1745,
      "4c": 1746,
      "##232": 1747,
      "##rj": 1748,
      "##a5c": 1749,
      "##ter": 1750,
      "##c7a": 1751,
      "##zx": 1752,
      "##967": 1753,
      "##f43": 1754,
      "##est": 1755,
      "##14b": 1756,
      "##0fb": 1757,
      "##77a": 1758,
      "##143": 1759,
      "##46a": 1760,
      "libg": 1761,
      "##ee8": 1762,
      "##ea42": 1763,
      "li": 1764,
      "##627": 1765,
      "##d0d": 1766,
      "##dline": 1767,
      "cmdline": 1768,
      "183": 1769,
      "##ky": 1770,
      "##f1a": 1771,
      "##4a5": 1772,
      "7c": 1773,
      "##uc": 1774,
      "##973": 1775,
      "##198": 1776,
      "##1f5": 1777,
      "##zl": 1778,
      "##wl": 1779,
      "right": 1780,
      "##br": 1781,
      "##bb6": 1782,
      "ht": 1783,
      "##0c3": 1784,
      "##36c": 1785,
      "##c84": 1786,
      "##d53": 1787,
      "##0aa6": 1788,
      "##676": 1789,
      "##9a8": 1790,
      "##uq": 1791,
      "##mod": 1792,
      "##427": 1793,
      "4fc": 1794,
      "##ce0": 1795,
      "##pj": 1796,
      "##oj": 1797,
      "##177": 1798,
      "##ff36": 1799,
      "##9b7": 1800,
      "##ce8": 1801,
      "##05c": 1802,
      "##wc": 1803,
      "##176": 1804,
      "##uj": 1805,
      "##vv": 1806,
      "##sc": 1807,
      "##938": 1808,
      "##b2e": 1809,
      "##d8c": 1810,
      "##167": 1811,
      "##e57": 1812,
      "##d96": 1813,
      "##ua": 1814,
      "198": 1815,
      "##d4a": 1816,
      "##4a32": 1817,
      "##f5c": 1818,
      "##5f5": 1819,
      "##oc": 1820,
      "##13a": 1821,
      "##5d62": 1822,
      "##5b8": 1823,
      "##1f4": 1824,
      "##pr": 1825,
      "166": 1826,
      "##4d2": 1827,
      "##xy": 1828,
      "##5f7": 1829,
      "78": 1830,
      "d7": 1831,
      "##442": 1832,
      "tra": 1833,
      "##lg": 1834,
      "##sz": 1835,
      "##eg": 1836,
      "cron": 1837,
      "##f68": 1838,
      "##dac": 1839,
      "##0b1": 1840,
      "##qr": 1841,
      "relea": 1842,
      "##ecko": 1843,
      "##005": 1844,
      "##3ec": 1845,
      "##fe5": 1846,
      "##3a6": 1847,
      "146": 1848,
      "##md": 1849,
      "##87d": 1850,
      "##e9a": 1851,
      "##e1fc": 1852,
      "##f1f": 1853,
      "##783": 1854,
      "203": 1855,
      "##qd": 1856,
      "##98c": 1857,
      "##fcb": 1858,
      "##0d3c": 1859,
      "##9a7": 1860,
      "##083": 1861,
      "213": 1862,
      "the": 1863,
      "##qt": 1864,
      "##196": 1865,
      "##hh": 1866,
      "##5d9": 1867,
      "##nn": 1868,
      "##56a": 1869,
      "##47b": 1870,
      "##d6c": 1871,
      "62": 1872,
      "##e0f": 1873,
      "##824": 1874,
      "##067": 1875,
      "##1412": 1876,
      "##42b": 1877,
      "##ord": 1878,
      "##fe7": 1879,
      "##183": 1880,
      "##853": 1881,
      "##023": 1882,
      "##c5d": 1883,
      "##ff2": 1884,
      "##so": 1885,
      "##02a": 1886,
      "##10b": 1887,
      "##mr": 1888,
      "##1b3": 1889,
      "##e2c": 1890,
      "94": 1891,
      "##f13": 1892,
      "##507": 1893,
      "##e99": 1894,
      "##372": 1895,
      "sched": 1896,
      "##0fd": 1897,
      "##9d2": 1898,
      "##011": 1899,
      "chmod": 1900,
      "##76bd": 1901,
      "184": 1902,
      "##e16": 1903,
      "##mv": 1904,
      "##944": 1905,
      "##969": 1906,
      "##f77": 1907,
      "##460": 1908,
      "187": 1909,
      "##hv": 1910,
      "##ac4": 1911,
      "##mon": 1912,
      "##5d4": 1913,
      "##36d": 1914,
      "##58b": 1915,
      "##0aa": 1916,
      "##368": 1917,
      "214": 1918,
      "42": 1919,
      "##e1c": 1920,
      "##f2b": 1921,
      "##qi": 1922,
      "##zk": 1923,
      "##adc": 1924,
      "##fr": 1925,
      "##e76": 1926,
      "cc": 1927,
      "##wj": 1928,
      "##661": 1929,
      "##991": 1930,
      "##yg": 1931,
      "##sd": 1932,
      "##523": 1933,
      "##5a6": 1934,
      "##c68": 1935,
      "##14c": 1936,
      "##00c": 1937,
      "##f0b": 1938,
      "##623": 1939,
      "##e5d": 1940,
      "##08d": 1941,
      "43": 1942,
      "b6": 1943,
      "##4d8": 1944,
      "##e1b": 1945,
      "##yy": 1946,
      "##12057": 1947,
      "##9ba": 1948,
      "##fe1": 1949,
      "##e17": 1950,
      "##e43": 1951,
      "##tj": 1952,
      "libc": 1953,
      "##228": 1954,
      "##eef": 1955,
      "##86a": 1956,
      "##d7a": 1957,
      "3c": 1958,
      "93": 1959,
      "##104": 1960,
      "##lc": 1961,
      "##sj": 1962,
      "##ff9": 1963,
      "ac": 1964,
      "##xk": 1965,
      "##163": 1966,
      "##fcc": 1967,
      "##ebd": 1968,
      "##4cb": 1969,
      "##mu": 1970,
      "##sa": 1971,
      "##48c": 1972,
      "iot": 1973,
      "##148": 1974,
      "##92b": 1975,
      "168": 1976,
      "38": 1977,
      "##f93": 1978,
      "##46d": 1979,
      "##e91": 1980,
      "##587": 1981,
      "##44c": 1982,
      "##3b6": 1983,
      "82": 1984,
      "##wa": 1985,
      "##5c8": 1986,
      "##9ab": 1987,
      "gecko": 1988,
      "##lk": 1989,
      "##ez": 1990,
      "iothread": 1991,
      "##e02": 1992,
      "##df8": 1993,
      "##e0b": 1994,
      "##ba62": 1995,
      "##924": 1996,
      "us": 1997,
      "##444": 1998,
      "492": 1999,
      "##nf": 2000,
      "##943": 2001,
      "##823": 2002,
      "##993": 2003,
      "##d86": 2004,
      "to": 2005,
      "##001": 2006,
      "##45c": 2007,
      "##uo": 2008,
      "113": 2009,
      "3b": 2010,
      "7d": 2011,
      "##57b": 2012,
      "##473": 2013,
      "kd": 2014,
      "##lx": 2015,
      "##ek": 2016,
      "##yz": 2017,
      "##e82": 2018,
      "##e3d": 2019,
      "##f08": 2020,
      "##wo": 2021,
      "##58d": 2022,
      "##yp": 2023,
      "##e64": 2024,
      "xpt": 2025,
      "##qo": 2026,
      "##71a": 2027,
      "##sp": 2028,
      "##13b": 2029,
      "##983": 2030,
      "##3a2": 2031,
      "##0e0": 2032,
      "##5a3": 2033,
      "##0014": 2034,
      "##nb": 2035,
      "##5e2": 2036,
      "##c82": 2037,
      "##45a": 2038,
      "##590": 2039,
      "##d94": 2040,
      "##yk": 2041,
      "##5bf": 2042,
      "##ebc": 2043,
      "##a23": 2044,
      "##f1d": 2045,
      "##d82": 2046,
      "##47d": 2047,
      "##912": 2048,
      "##1ed": 2049,
      "##012": 2050,
      "##0e2": 2051,
      "##6297": 2052,
      "##8b3": 2053,
      "ec": 2054,
      "##02f2": 2055,
      "##7ec": 2056,
      "##wd": 2057,
      "##5e5": 2058,
      "##1d3": 2059,
      "##yx": 2060,
      "##fa8": 2061,
      "##36a": 2062,
      "##4dd": 2063,
      "##mm": 2064,
      "##04d6": 2065,
      "##9c2": 2066,
      "##c2d": 2067,
      "##jr": 2068,
      "##5ef": 2069,
      "##1496": 2070,
      "##03a8": 2071,
      "##17c": 2072,
      "##9913": 2073,
      "ne": 2074,
      "##90a": 2075,
      "##406": 2076,
      "##aa6": 2077,
      "##43c": 2078,
      "##d78": 2079,
      "##iq": 2080,
      "##iu": 2081,
      "##773": 2082,
      "##826": 2083,
      "##4a3": 2084,
      "dpkg": 2085,
      "pr": 2086,
      "##10d": 2087,
      "##e5b": 2088,
      "##ca8": 2089,
      "##934": 2090,
      "##9c8": 2091,
      "##226": 2092,
      "ed": 2093,
      "##568": 2094,
      "##543": 2095,
      "##f76": 2096,
      "##f4e": 2097,
      "e7a": 2098,
      "##1fd": 2099,
      "##18b": 2100,
      "##388": 2101,
      "##4c3": 2102,
      "##5b2": 2103,
      "##fd3": 2104,
      "##5505": 2105,
      "##268": 2106,
      "2d": 2107,
      "f3": 2108,
      "##qb": 2109,
      "##f04": 2110,
      "##92d": 2111,
      "##4307": 2112,
      "##dc7": 2113,
      "##3a4": 2114,
      "##ef6": 2115,
      "##da3": 2116,
      "##ie": 2117,
      "##vb": 2118,
      "##18a2": 2119,
      "gdb": 2120,
      "##ub": 2121,
      "##dec": 2122,
      "##gx": 2123,
      "##861": 2124,
      "##zc": 2125,
      "##5df": 2126,
      "##ca6": 2127,
      "##070b": 2128,
      "##9002": 2129,
      "927": 2130,
      "a7": 2131,
      "##wr": 2132,
      "##f6d": 2133,
      "##b21d": 2134,
      "##vf": 2135,
      "##b66": 2136,
      "##981": 2137,
      "##8443": 2138,
      "em2": 2139,
      "##f9a": 2140,
      "##gc": 2141,
      "##474": 2142,
      "##0a30": 2143,
      "##9aa": 2144,
      "##764": 2145,
      "##config": 2146,
      "##1334": 2147,
      "##9df6": 2148,
      "174": 2149,
      "##mf": 2150,
      "##16c": 2151,
      "aa": 2152,
      "##164": 2153,
      "##da28": 2154,
      "##9d46": 2155,
      "##ffa": 2156,
      "##pd": 2157,
      "##18d2": 2158,
      "##e533": 2159,
      "173": 2160,
      "##e54": 2161,
      "##hf": 2162,
      "##883": 2163,
      "##878": 2164,
      "##mb": 2165,
      "##33b6": 2166,
      "##ebd6": 2167,
      "##774": 2168,
      "##01fb": 2169,
      "b2": 2170,
      "144": 2171,
      "47": 2172,
      "##147": 2173,
      "##ntconfig": 2174,
      "##bb2": 2175,
      "##f5b": 2176,
      "##5b03": 2177,
      "##1bf7": 2178,
      "##gk": 2179,
      "##1323": 2180,
      "##f3b7": 2181,
      "##4f8": 2182,
      "##xj": 2183,
      "##f0e2": 2184,
      "##477": 2185,
      "##1af": 2186,
      "##9cbb": 2187,
      "##e6f2": 2188,
      "##pq": 2189,
      "##4b4": 2190,
      "##b94": 2191,
      "##gy": 2192,
      "##14dc": 2193,
      "##e4f3": 2194,
      "44": 2195,
      "d6": 2196,
      "##f2e8": 2197,
      "##ed38": 2198,
      "##9a6": 2199,
      "e3": 2200,
      "##3c6": 2201,
      "##4f6": 2202,
      "##b44": 2203,
      "##oo": 2204,
      "##f7cc": 2205,
      "##61da": 2206,
      "##9e6": 2207,
      "##55a": 2208,
      "##edcc": 2209,
      "##d64": 2210,
      "##515": 2211,
      "##ac3": 2212,
      "##16d": 2213,
      "312": 2214,
      "##rd": 2215,
      "##521": 2216,
      "##1aa": 2217,
      "##3896": 2218,
      "##eab0f": 2219,
      "tru": 2220,
      "##xl": 2221,
      "##ee7": 2222,
      "##1bb7": 2223,
      "##32c": 2224,
      "b78": 2225,
      "##03dc": 2226,
      "##rowser": 2227,
      "##5d8": 2228,
      "##07ca": 2229,
      "##9216": 2230,
      "##439": 2231,
      "##0a7": 2232,
      "##461": 2233,
      "##722": 2234,
      "##10fb": 2235,
      "list": 2236,
      "##eae4": 2237,
      "##16b": 2238,
      "##ebb": 2239,
      "##91f6": 2240,
      "##c29d": 2241,
      "##505": 2242,
      "##vh": 2243,
      "##57a": 2244,
      "##e23": 2245,
      "##f6a": 2246,
      "##e63": 2247,
      "##6f02": 2248,
      "##jd": 2249,
      "##433": 2250,
      "##497": 2251,
      "##589f": 2252,
      "##628d": 2253,
      "##c3ac": 2254,
      "134": 2255,
      "##189": 2256,
      "##dab7": 2257,
      "##58c": 2258,
      "##476": 2259,
      "##4c7": 2260,
      "##c8d": 2261,
      "##e093": 2262,
      "73": 2263,
      "##0612": 2264,
      "##42c": 2265,
      "##fb5": 2266,
      "##4bc": 2267,
      "##2b56": 2268,
      "sec": 2269,
      "##ct": 2270,
      "##cd5a": 2271,
      "3a": 2272,
      "##095": 2273,
      "##5b33": 2274,
      "##1c4": 2275,
      "##88b6": 2276,
      "locale": 2277,
      "##5e4": 2278,
      "##e87": 2279,
      "##e856": 2280,
      "##0e0c": 2281,
      "##bd3": 2282,
      "##5b62": 2283,
      "##44cc": 2284,
      "##e38": 2285,
      "##efbd": 2286,
      "##1a8c": 2287,
      "##f3a": 2288,
      "##8d3": 2289,
      "##1bc": 2290,
      "##1ba7": 2291,
      "##10f2": 2292,
      "am": 2293,
      "##qm": 2294,
      "##ak": 2295,
      "##wp": 2296,
      "##1a2": 2297,
      "##728": 2298,
      "d2": 2299,
      "##0bd37": 2300,
      "##iword": 2301,
      "226": 2302,
      "##016": 2303,
      "##02be": 2304,
      "##483": 2305,
      "##322": 2306,
      "##9a9": 2307,
      "##5aa0": 2308,
      "##d6b": 2309,
      "##iv": 2310,
      "##ea7": 2311,
      "##121e7": 2312,
      "##fc3": 2313,
      "##0ff6": 2314,
      "##yl": 2315,
      "##fc7": 2316,
      "##dbd": 2317,
      "##xz": 2318,
      "##ash": 2319,
      "##d3f": 2320,
      "##53d": 2321,
      "##5db6": 2322,
      "##as": 2323,
      "##ef0c": 2324,
      "##1c8": 2325,
      "##887": 2326,
      "##ac8": 2327,
      "##333a": 2328,
      "##4bc8": 2329,
      "##319b": 2330,
      "##9ea": 2331,
      "##1e2": 2332,
      "##rr": 2333,
      "##e5c": 2334,
      "##d2854": 2335,
      "##ules": 2336,
      "abiword": 2337,
      "##4e6": 2338,
      "##047": 2339,
      "##54c": 2340,
      "##e4b": 2341,
      "##b45c": 2342,
      "fontconfig": 2343,
      "##981b": 2344,
      "##626": 2345,
      "##d7ab": 2346,
      "le64": 2347,
      "##a8a": 2348,
      "##bc04": 2349,
      "##e7d22": 2350,
      "84": 2351,
      "##024": 2352,
      "##463": 2353,
      "c8": 2354,
      "##ii": 2355,
      "##33d5": 2356,
      "##1852": 2357,
      "##f3d": 2358,
      "cdd": 2359,
      "##jp": 2360,
      "##dcb": 2361,
      "##9b6": 2362,
      "##jm": 2363,
      "##ls": 2364,
      "##wn": 2365,
      "##add": 2366,
      "trash": 2367,
      "gif": 2368,
      "##197": 2369,
      "##4c2": 2370,
      "rc": 2371,
      "##rity": 2372,
      "##430": 2373,
      "##db6": 2374,
      "dbus": 2375,
      "##en": 2376,
      "##ting": 2377,
      "##ec56": 2378,
      "##959": 2379,
      "##e86": 2380,
      "##h8": 2381,
      "##135": 2382,
      "##ed67": 2383,
      "##224": 2384,
      "211": 2385,
      "##wb": 2386,
      "##0x": 2387,
      "##02c": 2388,
      "##03c": 2389,
      "##e44": 2390,
      "##ae8": 2391,
      "##0837": 2392,
      "##1b7": 2393,
      "##ld": 2394,
      "##f1e": 2395,
      "##yc": 2396,
      "##sq": 2397,
      "##381": 2398,
      "##828": 2399,
      "##zd": 2400,
      "##ac08": 2401,
      "##9847": 2402,
      "##f42": 2403,
      "##eo": 2404,
      "##yn": 2405,
      "##fc6": 2406,
      "163": 2407,
      "48": 2408,
      "mess": 2409,
      "##403": 2410,
      "##vn": 2411,
      "##9c6": 2412,
      "##bb4": 2413,
      "##05b": 2414,
      "##tm": 2415,
      "exec": 2416,
      "dd": 2417,
      "##59d": 2418,
      "##ont": 2419,
      "##tq": 2420,
      "##9266": 2421,
      "126": 2422,
      "##a9ed": 2423,
      "browser": 2424,
      "cpu": 2425,
      "##fda": 2426,
      "##e12": 2427,
      "##22c": 2428,
      "##hn": 2429,
      "##4c8": 2430,
      "##olk": 2431,
      "##0b2": 2432,
      "##ee94": 2433,
      "##4f0d": 2434,
      "##402": 2435,
      "##lu": 2436,
      "##zo": 2437,
      "##07b": 2438,
      "##66b": 2439,
      "libns": 2440,
      "new": 2441,
      "##jq": 2442,
      "##jo": 2443,
      "##0da": 2444,
      "##50b": 2445,
      "##9518": 2446,
      "##c62": 2447,
      "##wi": 2448,
      "##rica": 2449,
      "##576a": 2450,
      "##0933": 2451,
      "191": 2452,
      "7a": 2453,
      "fr": 2454,
      "##10c": 2455,
      "##1e6": 2456,
      "##d1d": 2457,
      "##827": 2458,
      "##e317": 2459,
      "##768": 2460,
      "##76f8": 2461,
      "##90f": 2462,
      "##1f2": 2463,
      "##ee3": 2464,
      "##a86": 2465,
      "##93a": 2466,
      "##1g": 2467,
      "##pi": 2468,
      "##98a": 2469,
      "##788": 2470,
      "execve": 2471,
      "533": 2472,
      "b93": 2473,
      "##9x": 2474,
      "##0f2": 2475,
      "##03a": 2476,
      "##93d": 2477,
      "##426": 2478,
      "##0ab": 2479,
      "##9b6c": 2480,
      "##1347": 2481,
      "##ba6": 2482,
      "trust": 2483,
      "b7": 2484,
      "mem": 2485,
      "ter": 2486,
      "##4ee": 2487,
      "##e77": 2488,
      "##f994": 2489,
      "##2bdd": 2490,
      "##1k": 2491,
      "##4fa": 2492,
      "la": 2493,
      "##fm": 2494,
      "##h5": 2495,
      "##56b": 2496,
      "##0ac": 2497,
      "##5aab": 2498,
      "##919": 2499,
      "##e6d": 2500,
      "##4ca": 2501,
      "##qn": 2502,
      "##v4": 2503,
      "##sm": 2504,
      "##02d": 2505,
      "##4d3": 2506,
      "##261": 2507,
      "4b": 2508,
      "##539": 2509,
      "##323": 2510,
      "##ft": 2511,
      "##pm": 2512,
      "##e48": 2513,
      "##v3": 2514,
      "##ju": 2515,
      "##ji": 2516,
      "##9k": 2517,
      "##gs": 2518,
      "##97c": 2519,
      "##529": 2520,
      "##5b0d": 2521,
      "##9503": 2522,
      "##4a8": 2523,
      "##ary": 2524,
      "##b2c": 2525,
      "ti": 2526,
      "crash": 2527,
      "##94c9": 2528,
      "##7b57": 2529,
      "##4097": 2530,
      "acc": 2531,
      "##wm": 2532,
      "##ph": 2533,
      "##port": 2534,
      "##wq": 2535,
      "##zr": 2536,
      "##97b": 2537,
      "##f7a": 2538,
      "##0k": 2539,
      "##9519": 2540,
      "##41a": 2541,
      "##94a": 2542,
      "##915": 2543,
      "secu": 2544,
      "a6": 2545,
      "hel": 2546,
      "##jt": 2547,
      "##da1": 2548,
      "##a7c": 2549,
      "##55d": 2550,
      "##wt": 2551,
      "##fc4": 2552,
      "##olkit": 2553,
      "gn": 2554,
      "##4b2": 2555,
      "termin": 2556,
      "te": 2557,
      "##c67": 2558,
      "##fed": 2559,
      "##v1": 2560,
      "##v7": 2561,
      "##0c3b": 2562,
      "##e6c": 2563,
      "##9y": 2564,
      "##0888": 2565,
      "##76c": 2566,
      "##jb": 2567,
      "##eaa": 2568,
      "##a2b": 2569,
      "##e0fb": 2570,
      "si": 2571,
      "##pb": 2572,
      "##wh": 2573,
      "##gl": 2574,
      "info": 2575,
      "##xc": 2576,
      "##fea": 2577,
      "##wu": 2578,
      "##070": 2579,
      "##478": 2580,
      "##723": 2581,
      "bb": 2582,
      "##v2": 2583,
      "##33d": 2584,
      "##1d7": 2585,
      "##go": 2586,
      "##9e5": 2587,
      "##334": 2588,
      "##9213": 2589,
      "##daa": 2590,
      "##0b4": 2591,
      "1416": 2592,
      "111": 2593,
      "##fu": 2594,
      "556": 2595,
      "##qh": 2596,
      "##97db": 2597,
      "##fca": 2598,
      "##0ca": 2599,
      "##9a3": 2600,
      "205": 2601,
      "608": 2602,
      "arc": 2603,
      "##921": 2604,
      "##974": 2605,
      "##bb7": 2606,
      "##1112": 2607,
      "##8k": 2608,
      "##16e7": 2609,
      "##1c2": 2610,
      "##9f2": 2611,
      "##0462": 2612,
      "##449": 2613,
      "security": 2614,
      "##818": 2615,
      "##zt": 2616,
      "##1d96": 2617,
      "##019": 2618,
      "##999": 2619,
      "##0008": 2620,
      "##ffe": 2621,
      "847": 2622,
      "##19b": 2623,
      "##50d": 2624,
      "##065": 2625,
      "##5b3": 2626,
      "##8a0": 2627,
      "##c72": 2628,
      "##ver": 2629,
      "process": 2630,
      "##b23": 2631,
      "##igh": 2632,
      "terminal": 2633,
      "9d": 2634,
      "tl": 2635,
      "##5x": 2636,
      "##5e3": 2637,
      "##120": 2638,
      "##32b": 2639,
      "##0507": 2640,
      "##4b48": 2641,
      "##jf": 2642,
      "##b9f": 2643,
      "##sum": 2644,
      "##1238": 2645,
      "##0642": 2646,
      "##068b": 2647,
      "##hive": 2648,
      "##0872": 2649,
      "##fab": 2650,
      "##cca": 2651,
      "##c6a": 2652,
      "155": 2653,
      "##109": 2654,
      "##d28": 2655,
      "201": 2656,
      "##q4": 2657,
      "##5y": 2658,
      "##d3d": 2659,
      "##1bd": 2660,
      "##3448": 2661,
      "trusty": 2662,
      "d3": 2663,
      "tc": 2664,
      "##b46": 2665,
      "##4786": 2666,
      "##9f1a": 2667,
      "ea": 2668,
      "##acfc": 2669,
      "##5433": 2670,
      "##5453": 2671,
      "##kc": 2672,
      "##si": 2673,
      "##9bc": 2674,
      "af": 2675,
      "##pn": 2676,
      "##5422": 2677,
      "##ff44": 2678,
      "256": 2679,
      "##oa": 2680,
      "##adf": 2681,
      "##03fe": 2682,
      "127": 2683,
      "dae": 2684,
      "##3x": 2685,
      "##su": 2686,
      "##432": 2687,
      "##2114": 2688,
      "##9l": 2689,
      "##rq": 2690,
      "##5z": 2691,
      "##513": 2692,
      "##86f2": 2693,
      "##12f": 2694,
      "##97ad": 2695,
      "##873": 2696,
      "##e00": 2697,
      "##ga": 2698,
      "##sf": 2699,
      "##e2d": 2700,
      "##3a3": 2701,
      "##0e4": 2702,
      "##gt": 2703,
      "##08c3": 2704,
      "##170": 2705,
      "##1a87": 2706,
      "##eb06": 2707,
      "##0114": 2708,
      "##a614": 2709,
      "##6a3": 2710,
      "4f": 2711,
      "##4f7": 2712,
      "##40d": 2713,
      "##f38": 2714,
      "##f0e": 2715,
      "##5k": 2716,
      "##ob": 2717,
      "##564": 2718,
      "##9713": 2719,
      "##yd": 2720,
      "##9487": 2721,
      "##5426": 2722,
      "##18a": 2723,
      "##9827": 2724,
      "##371": 2725,
      "##3a7": 2726,
      "##d746": 2727,
      "##8315": 2728,
      "##e78": 2729,
      "##0533": 2730,
      "message": 2731,
      "##d47": 2732,
      "##47dd": 2733,
      "##15ad": 2734,
      "##6ce8": 2735,
      "2c7": 2736,
      "dfa": 2737,
      "##n4": 2738,
      "##gj": 2739,
      "##ec1": 2740,
      "##9b42": 2741,
      "##9116": 2742,
      "##dca": 2743,
      "##3b7": 2744,
      "##6e62": 2745,
      "kde4": 2746,
      "neigh": 2747,
      "ra": 2748,
      "##b36": 2749,
      "##bdb": 2750,
      "##e97": 2751,
      "##v6": 2752,
      "##0383": 2753,
      "##62d": 2754,
      "##0b8": 2755,
      "##eec4": 2756,
      "##9ac": 2757,
      "##e5a": 2758,
      "##h6": 2759,
      "##gd": 2760,
      "##sw": 2761,
      "##daa2": 2762,
      "##ecb": 2763,
      "##e7f": 2764,
      "##382": 2765,
      "##3893": 2766,
      "##9152": 2767,
      "##3c7": 2768,
      "get": 2769,
      "##337": 2770,
      "##5d47": 2771,
      "##3848": 2772,
      "##1l": 2773,
      "##e9c": 2774,
      "##029d": 2775,
      "##5896": 2776,
      "##e738": 2777,
      "##0a6": 2778,
      "b8": 2779,
      "e3a": 2780,
      "pk": 2781,
      "##1eb": 2782,
      "##0z": 2783,
      "##ya": 2784,
      "##07fa": 2785,
      "##9736": 2786,
      "##0abb": 2787,
      "##9fe4": 2788,
      "archive": 2789,
      "105": 2790,
      "##0y": 2791,
      "##bd2": 2792,
      "##e51": 2793,
      "##a77": 2794,
      "##56ac": 2795,
      "##5847": 2796,
      "##eb7": 2797,
      "##1def": 2798,
      "##9154": 2799,
      "##a7e": 2800,
      "amd64": 2801,
      "ame": 2802,
      "##h7": 2803,
      "##h4": 2804,
      "##3302": 2805,
      "##47fc": 2806,
      "##9a8b": 2807,
      "##f87": 2808,
      "##f6b6": 2809,
      "##a7a": 2810,
      "##e9ef": 2811,
      "lists": 2812,
      "3d8": 2813,
      "md5": 2814,
      "##n2": 2815,
      "##n6": 2816,
      "##d04": 2817,
      "##971a": 2818,
      "##1c33": 2819,
      "##3278": 2820,
      "dists": 2821,
      "md5sum": 2822,
      "fs": 2823,
      "##0b3": 2824,
      "##e6b": 2825,
      "##4c33": 2826,
      "##4a5d": 2827,
      "##v8": 2828,
      "##h2": 2829,
      "##5642": 2830,
      "##1837": 2831,
      "##1198": 2832,
      "##b7ec": 2833,
      "##bcd": 2834,
      "##ac7": 2835,
      "##5872": 2836,
      "##478e": 2837,
      "##9552": 2838,
      "##1117": 2839,
      "##f52c9": 2840,
      "america": 2841,
      "id": 2842,
      "##za": 2843,
      "##079": 2844,
      "##92a7": 2845,
      "##1617": 2846,
      "##328": 2847,
      "##ee12d": 2848,
      "##ec766": 2849,
      "##rm": 2850,
      "##b78": 2851,
      "##5d2": 2852,
      "##6607": 2853,
      "##777c": 2854,
      "##ba3": 2855,
      "##7456": 2856,
      "##eutl": 2857,
      "fileutl": 2858,
      "##099": 2859,
      "##wf": 2860,
      "##9442": 2861,
      "##546e": 2862,
      "##5c4": 2863,
      "##cb5": 2864,
      "##400a": 2865,
      "##b516": 2866,
      "##rb": 2867,
      "##h3": 2868,
      "##ef62": 2869,
      "##06db": 2870,
      "##1b87": 2871,
      "##678": 2872,
      "##e5f3": 2873,
      "##7d5c": 2874,
      "##q2": 2875,
      "##xd": 2876,
      "##4298": 2877,
      "##eb96": 2878,
      "##5a07": 2879,
      "##1f93": 2880,
      "101": 2881,
      "##qf": 2882,
      "##296": 2883,
      "##1y": 2884,
      "##n9": 2885,
      "##5eb": 2886,
      "##fbf": 2887,
      "##e7e2": 2888,
      "##5dc": 2889,
      "##fdd8": 2890,
      "##019b": 2891,
      "pl": 2892,
      "##8fc": 2893,
      "##b0e": 2894,
      "##zj": 2895,
      "##0830": 2896,
      "##9c38": 2897,
      "##324": 2898,
      "##01ef": 2899,
      "##4c4": 2900,
      "##9f0": 2901,
      "##1fe1": 2902,
      "##900d": 2903,
      "5d": 2904,
      "##10f": 2905,
      "##bdf": 2906,
      "##zw": 2907,
      "##16f8": 2908,
      "##4638": 2909,
      "##4615": 2910,
      "##db2": 2911,
      "##090": 2912,
      "##6ae3": 2913,
      "##2556": 2914,
      "##100": 2915,
      "##149": 2916,
      "##fc5b": 2917,
      "##fbcb": 2918,
      "##1af7": 2919,
      "##e8ddc": 2920,
      "##4b5c": 2921,
      "##orter": 2922,
      "crashrep": 2923,
      "##tt": 2924,
      "##1c5": 2925,
      "##3a62": 2926,
      "##c25": 2927,
      "##a8c": 2928,
      "##7a66": 2929,
      "##m4": 2930,
      "mod": 2931,
      "##5b6a": 2932,
      "##fae": 2933,
      "##dc2": 2934,
      "##c280": 2935,
      "##qe": 2936,
      "##xo": 2937,
      "##bef": 2938,
      "##e10": 2939,
      "##08ea": 2940,
      "##145": 2941,
      "##e7ea": 2942,
      "##0d67": 2943,
      "##c6fa": 2944,
      "##9b218": 2945,
      "daemon": 2946,
      "8dc": 2947,
      "##fb77": 2948,
      "##1a24": 2949,
      "##1ab9c": 2950,
      "tr": 2951,
      "##7e3": 2952,
      "##167b": 2953,
      "##1872": 2954,
      "##583a": 2955,
      "##e28c": 2956,
      "##b7c2": 2957,
      "##2133": 2958,
      "##6bea": 2959,
      "##6001": 2960,
      "md5sums": 2961,
      "0d": 2962,
      "cl": 2963,
      "##q8": 2964,
      "##n7": 2965,
      "##p4": 2966,
      "##1285": 2967,
      "##fb39": 2968,
      "##ed76": 2969,
      "##48e4": 2970,
      "##9a5a": 2971,
      "##f818": 2972,
      "##fab6": 2973,
      "##8262": 2974,
      "##9fe6": 2975,
      "##2416": 2976,
      "0fb": 2977,
      "bc": 2978,
      "f8d": 2979,
      "##ef2": 2980,
      "##d8eb": 2981,
      "##04c2": 2982,
      "##5491": 2983,
      "##47e": 2984,
      "##f68b": 2985,
      "##e454": 2986,
      "##05e4": 2987,
      "##6d9b": 2988,
      "6ac": 2989,
      "##404": 2990,
      "##xw": 2991,
      "##ze": 2992,
      "##575": 2993,
      "##06d6": 2994,
      "##fb1d": 2995,
      "##3bf0": 2996,
      "##a8a6": 2997,
      "##udo": 2998,
      "##54d7": 2999,
      "##974c": 3000,
      "##da22": 3001,
      "##4295": 3002,
      "##43e": 3003,
      "##ee03": 3004,
      "##4df2": 3005,
      "##6991": 3006,
      "##ity": 3007,
      "eb": 3008,
      "ffb": 3009,
      "##kd": 3010,
      "##ac2b": 3011,
      "##ad66": 3012,
      "##323d": 3013,
      "##0f92": 3014,
      "##5ee3": 3015,
      "##21b": 3016,
      "##p6": 3017,
      "##i4": 3018,
      "##h9": 3019,
      "##02572": 3020,
      "##584": 3021,
      "##0b1b": 3022,
      "##1a36": 3023,
      "##f7ec": 3024,
      "##67a": 3025,
      "##72b": 3026,
      "##09ad": 3027,
      "##51f4": 3028,
      "##909b": 3029,
      "##1564": 3030,
      "libnss": 3031,
      "7029": 3032,
      "c6": 3033,
      "##u4": 3034,
      "##a8b": 3035,
      "##ef3b": 3036,
      "##07a2": 3037,
      "##1244": 3038,
      "##92b8": 3039,
      "##13f": 3040,
      "##ec0d": 3041,
      "##484": 3042,
      "##327d": 3043,
      "##5a0c7": 3044,
      "##373d": 3045,
      "##f64f": 3046,
      "##4a8a": 3047,
      "##7452": 3048,
      "##1f7f7": 3049,
      "##55b": 3050,
      "##026c": 3051,
      "##92a6": 3052,
      "##969d": 3053,
      "##0384": 3054,
      "##18c6": 3055,
      "##1873": 3056,
      "##9cc2": 3057,
      "##fa0c": 3058,
      "##8879": 3059,
      "##4bd8": 3060,
      "##c6a3": 3061,
      "##08716": 3062,
      "141": 3063,
      "##kl": 3064,
      "##kr": 3065,
      "##tn": 3066,
      "##d872": 3067,
      "##d8cd": 3068,
      "##12b6": 3069,
      "##fb00": 3070,
      "##eb4b": 3071,
      "##e5e": 3072,
      "##890a": 3073,
      "##59b6": 3074,
      "1b": 3075,
      "##uv": 3076,
      "##ac26": 3077,
      "##ec08": 3078,
      "##0a56": 3079,
      "##48532": 3080,
      "##dc22": 3081,
      "##115f": 3082,
      "##3bda": 3083,
      "##cde": 3084,
      "crashreporter": 3085,
      "0f7ec": 3086,
      "151": 3087,
      "78c": 3088,
      "dabc": 3089,
      "eb4": 3090,
      "##257": 3091,
      "##3g": 3092,
      "##56ef": 3093,
      "##960": 3094,
      "##066d": 3095,
      "##93da28": 3096,
      "##98a1": 3097,
      "##5b08": 3098,
      "##e8a": 3099,
      "##9d6d": 3100,
      "##e4adb": 3101,
      "##bb6d9b": 3102,
      "##4a7": 3103,
      "##cab8": 3104,
      "##55e8": 3105,
      "##3b5d1": 3106,
      "##f50a": 3107,
      "##700a30": 3108,
      "##a1fb": 3109,
      "##11bdc": 3110,
      "##1445c8": 3111,
      "##e11da1": 3112,
      "##c94bb6d9b": 3113,
      "##09d3b5d1": 3114,
      "##1a6e4adb": 3115,
      "##50f48e4": 3116,
      "##b5878": 3117,
      "##d8295": 3118,
      "a75c": 3119,
      "##88b602572": 3120,
      "##0ca5a": 3121,
      "0fb88b602572": 3122,
      "##9cc2c94bb6d9b": 3123,
      "0f7ec50f48e4": 3124,
      "##93da28e11da1": 3125,
      "##700a301445c8": 3126,
      "##09d3b5d11a6e4adb": 3127,
      "0fb88b6025729cc2c94bb6d9b": 3128,
      "0f7ec50f48e409d3b5d11a6e4adb": 3129,
      "##700a301445c8436": 3130,
      "0fb88b6025729cc2c94bb6d9b700a301445c8436": 3131,
      "0f7ec50f48e409d3b5d11a6e4adb93da28e11da1": 3132,
      "278": 3133,
      "fc": 3134,
      "##ue": 3135,
      "##a78": 3136,
      "##yj": 3137,
      "##ac9c": 3138,
      "##07926": 3139,
      "##336c": 3140,
      "##17b1": 3141,
      "##939d": 3142,
      "##475": 3143,
      "##478b": 3144,
      "##9c0d": 3145,
      "##eb6": 3146,
      "##677": 3147,
      "##66038": 3148,
      "##f69": 3149,
      "##0e93": 3150,
      "##83d7": 3151,
      "##e00c": 3152,
      "##d9fb": 3153,
      "217": 3154,
      "##3cc": 3155,
      "##b0d": 3156,
      "##e52": 3157,
      "##031d": 3158,
      "##14e2": 3159,
      "##13ba7": 3160,
      "##5a26": 3161,
      "##384786": 3162,
      "##d2ad": 3163,
      "##3c3": 3164,
      "##df9": 3165,
      "##b4182": 3166,
      "##c35505": 3167,
      "##af33": 3168,
      "##fe62": 3169,
      "##b30a56": 3170,
      "##326a8a6": 3171,
      "##96638d": 3172,
      "##04b2493": 3173,
      "##0d748c": 3174,
      "##19a71a": 3175,
      "b78c35505": 3176,
      "##9216b4182": 3177,
      "##068b19a71a": 3178,
      "##7456f64f": 3179,
      "8dc7456f64f": 3180,
      "##115f13ba7": 3181,
      "##b30a560d748c": 3182,
      "##96638d04b2493": 3183,
      "b78c355059216b4182": 3184,
      "##068b19a71ab30a560d748c": 3185,
      "8dc7456f64f068b19a71ab30a560d748c": 3186,
      "##96638d04b2493115f13ba7": 3187,
      "b78c355059216b418296638d04b2493115f13ba7": 3188,
      "8dc7456f64f068b19a71ab30a560d748c326a8a6": 3189,
      "5156": 3190,
      "8c": 3191,
      "b4a8a": 3192,
      "cb21d": 3193,
      "e78c": 3194,
      "##f239": 3195,
      "##ade9ef": 3196,
      "##075ee3": 3197,
      "##565f3": 3198,
      "##54fe1": 3199,
      "##932c": 3200,
      "##ece4d": 3201,
      "##42d43": 3202,
      "##0b1334": 3203,
      "##5cd8295": 3204,
      "##9c45c": 3205,
      "##0d0462": 3206,
      "##e24da": 3207,
      "##9a5d": 3208,
      "##5d1d8": 3209,
      "##fdeb": 3210,
      "##77c6a3": 3211,
      "##369519": 3212,
      "##727": 3213,
      "##bbe2": 3214,
      "##f319": 3215,
      "##baa4": 3216,
      "##e3c5": 3217,
      "##cc11bdc": 3218,
      "##9f553": 3219,
      "##d75da": 3220,
      "apps": 3221,
      "##ee95c": 3222,
      "##0e04": 3223,
      "##a7ea9": 3224,
      "##b697ad": 3225,
      "##f5ebd6": 3226,
      "##3d916": 3227,
      "##7a22": 3228,
      "##a4066d": 3229,
      "##2cd88": 3230,
      "##7b554": 3231,
      "##7be13": 3232,
      "##2a5e8": 3233,
      "##6a08c": 3234,
      "##61efb": 3235,
      "##457e8f": 3236,
      "##0329df": 3237,
      "##9ed2cd88": 3238,
      "##11b5e7": 3239,
      "##c0466038": 3240,
      "##157f92": 3241,
      "##f5d02f2": 3242,
      "##50c2a5e8": 3243,
      "##5caf239": 3244,
      "##94f8f5ebd6": 3245,
      "##fd61bf7": 3246,
      "##4940ad8": 3247,
      "##39dd83": 3248,
      "##772e454": 3249,
      "089df6": 3250,
      "##e6842d43": 3251,
      "##e035d1d8": 3252,
      "##e891fbcb": 3253,
      "##1ad6001": 3254,
      "##f2e8a7ea9": 3255,
      "##e093f319": 3256,
      "2265b08": 3257,
      "##121e74940ad8": 3258,
      "##134705e4": 3259,
      "##9e59ed2cd88": 3260,
      "##9f1ae093f319": 3261,
      "##03fe384786": 3262,
      "##a614f5d02f2": 3263,
      "##948799": 3264,
      "dfa157f92": 3265,
      "##3278b697ad": 3266,
      "##8fc98a1": 3267,
      "6ac457e8f": 3268,
      "70299d6d": 3269,
      "##48532ece4d": 3270,
      "78c134705e4": 3271,
      "##a1fbeec4": 3272,
      "a75c1ad6001": 3273,
      "##0ca5a772e454": 3274,
      "b4a8a9e59ed2cd88": 3275,
      "cb21d3278b697ad": 3276,
      "e78c9f1ae093f319": 3277,
      "##ade9ef61efb": 3278,
      "##075ee3fd61bf7": 3279,
      "##565f3a4066d": 3280,
      "##54fe103fe384786": 3281,
      "##5cd8295e035d1d8": 3282,
      "##9c45c0d0462": 3283,
      "##77c6a354fe103fe384786": 3284,
      "##36951994f8f5ebd6": 3285,
      "##e3c5fb1d": 3286,
      "##cc11bdce6842d43": 3287,
      "##9f553c0466038": 3288,
      "##d75da0329df": 3289,
      "##ee95c7b554": 3290,
      "##7be13a614f5d02f2": 3291,
      "##6a08c5caf239": 3292,
      "##11b5e73d916": 3293,
      "##50c2a5e87be13a614f5d02f2": 3294,
      "##39dd839c45c0d0462": 3295,
      "089df648532ece4d": 3296,
      "##e891fbcb77c6a354fe103fe384786": 3297,
      "##f2e8a7ea9ade9ef61efb": 3298,
      "2265b0850c2a5e87be13a614f5d02f2": 3299,
      "##121e74940ad821": 3300,
      "dfa157f92cc11bdce6842d43": 3301,
      "##8fc98a191": 3302,
      "6ac457e8f9f553c0466038": 3303,
      "70299d6d5cd8295e035d1d8": 3304,
      "78c134705e4d75da0329df": 3305,
      "a75c1ad6001e891fbcb77c6a354fe103fe384786": 3306,
      "##0ca5a772e4540b1334": 3307,
      "b4a8a9e59ed2cd88075ee3fd61bf7": 3308,
      "cb21d3278b697ad565f3a4066d": 3309,
      "e78c9f1ae093f319f2e8a7ea9ade9ef61efb": 3310,
      "##36951994f8f5ebd6e3c5fb1d": 3311,
      "##ee95c7b554a1fbeec4": 3312,
      "##6a08c5caf2395b33": 3313,
      "089df648532ece4d36951994f8f5ebd6e3c5fb1d": 3314,
      "2265b0850c2a5e87be13a614f5d02f28fc98a191": 3315,
      "dfa157f92cc11bdce6842d436a08c5caf2395b33": 3316,
      "6ac457e8f9f553c04660380ca5a772e4540b1334": 3317,
      "70299d6d5cd8295e035d1d839dd839c45c0d0462": 3318,
      "78c134705e4d75da0329dfee95c7b554a1fbeec4": 3319,
      "b4a8a9e59ed2cd88075ee3fd61bf711b5e73d916": 3320,
      "cb21d3278b697ad565f3a4066d121e74940ad821": 3321,
      "e78c9f1ae093f319f2e8a7ea9ade9ef61efb969d": 3322,
      "0d92": 3323,
      "7a7": 3324,
      "7c2d": 3325,
      "sudo": 3326,
      "##v5": 3327,
      "##f242": 3328,
      "##86d7": 3329,
      "##04956": 3330,
      "##13dd": 3331,
      "##439c": 3332,
      "##438e": 3333,
      "##1a4": 3334,
      "##e7fd": 3335,
      "##01ac": 3336,
      "##4aeda": 3337,
      "##4d5": 3338,
      "##1f5a": 3339,
      "##4f956": 3340,
      "##500c6": 3341,
      "##c7373d": 3342,
      "##7a948799": 3343,
      "##bd014": 3344,
      "##5e1a9": 3345,
      "##bfd8": 3346,
      "##97712b6": 3347,
      "##e3c58d": 3348,
      "##67347": 3349,
      "##ff632f": 3350,
      "##52717": 3351,
      "##9bb377": 3352,
      "##43843": 3353,
      "##f8c4a32": 3354,
      "##e4cec766": 3355,
      "##5b7bd014": 3356,
      "##cd7cd": 3357,
      "##b2e0642": 3358,
      "##d4afb77": 3359,
      "##f3b7b2e0642": 3360,
      "608ff632f": 3361,
      "##54535422": 3362,
      "##08c35e1a9": 3363,
      "##d47c7373d": 3364,
      "##029d5b7bd014": 3365,
      "##0b1b4f956": 3366,
      "##d8cd97712b6": 3367,
      "##3bda54535422": 3368,
      "##83d73bda54535422": 3369,
      "0d92e4cec766": 3370,
      "7a7f8c4a32": 3371,
      "7c2df3b7b2e0642": 3372,
      "##4aeda7a948799": 3373,
      "##500c608c35e1a9": 3374,
      "##e3c58d9bb377": 3375,
      "##d4afb77d47c7373d": 3376,
      "608ff632f029d5b7bd014": 3377,
      "##0b1b4f956b9f": 3378,
      "##d8cd97712b6cd7cd": 3379,
      "##83d73bda54535422cb5": 3380,
      "0d92e4cec766d4afb77d47c7373d": 3381,
      "7a7f8c4a32500c608c35e1a9": 3382,
      "7c2df3b7b2e0642e3c58d9bb377": 3383,
      "608ff632f029d5b7bd01483d73bda54535422cb5": 3384,
      "0d92e4cec766d4afb77d47c7373d0b1b4f956b9f": 3385,
      "7a7f8c4a32500c608c35e1a9d8cd97712b6cd7cd": 3386,
      "7c2df3b7b2e0642e3c58d9bb3774aeda7a948799": 3387,
      "3bc": 3388,
      "f62": 3389,
      "##zb": 3390,
      "##efc1": 3391,
      "##07f2": 3392,
      "##039c": 3393,
      "##da7b": 3394,
      "##0cd2": 3395,
      "##1aa9": 3396,
      "##e89f": 3397,
      "##0a8c": 3398,
      "##3202": 3399,
      "##66f4c": 3400,
      "##fa5f": 3401,
      "##888a0": 3402,
      "##0002": 3403,
      "##3b86": 3404,
      "123": 3405,
      "##4d4307": 3406,
      "##25fb": 3407,
      "##982dc8": 3408,
      "##ffdffd": 3409,
      "##ffd982dc8": 3410,
      "##eaf66f4c": 3411,
      "##fa34a5": 3412,
      "##d38a": 3413,
      "##9913af33": 3414,
      "##6f02fa0c": 3415,
      "##9b6f8": 3416,
      "helper": 3417,
      "8474d4307": 3418,
      "##59b69913af33": 3419,
      "dabc888a0": 3420,
      "##07926fa34a5": 3421,
      "##67347ffd982dc8": 3422,
      "##ffdffd67347ffd982dc8": 3423,
      "##eaf66f4c59b69913af33": 3424,
      "##6f02fa0cce8": 3425,
      "8474d4307ffdffd67347ffd982dc8": 3426,
      "dabc888a0eaf66f4c59b69913af33": 3427,
      "8474d4307ffdffd67347ffd982dc807926fa34a5": 3428,
      "dabc888a0eaf66f4c59b69913af336f02fa0cce8": 3429,
      "068": 3430,
      "33c": 3431,
      "3946": 3432,
      "##113": 3433,
      "##f5a": 3434,
      "##h0": 3435,
      "##9435b": 3436,
      "##12dc": 3437,
      "##149f": 3438,
      "##16f": 3439,
      "##938b": 3440,
      "##42d6": 3441,
      "##482f": 3442,
      "##cbc8": 3443,
      "##df0e6": 3444,
      "##4573": 3445,
      "##e04baa4": 3446,
      "##0bd4cf": 3447,
      "##5921": 3448,
      "##4964615": 3449,
      "##5ad9435b": 3450,
      "##07ca0bd4cf": 3451,
      "0685ad9435b": 3452,
      "##df0e64964615": 3453,
      "##e04baa407ca0bd4cf": 3454,
      "0685ad9435bdf0e64964615": 3455,
      "0685ad9435bdf0e64964615e04baa407ca0bd4cf": 3456,
      "21a87": 3457,
      "##kj": 3458,
      "##395f": 3459,
      "##ov": 3460,
      "##z2": 3461,
      "##f248": 3462,
      "##adc7": 3463,
      "##12bd": 3464,
      "##187b": 3465,
      "##424fc": 3466,
      "##fb79": 3467,
      "##1af1": 3468,
      "##1b5a": 3469,
      "##0dea": 3470,
      "##0dda8": 3471,
      "##d6f": 3472,
      "##d6da": 3473,
      "##d6f52c9": 3474,
      "##d717": 3475,
      "##ee51": 3476,
      "##b4e32": 3477,
      "##8d47": 3478,
      "##2c87": 3479,
      "##2d9e": 3480,
      "##ae1d": 3481,
      "##c1134": 3482,
      "##982bb2": 3483,
      "##45668": 3484,
      "##9b6c09ad": 3485,
      "##eb4bc1134": 3486,
      "21a87d6f52c9": 3487,
      "##982bb2b4e32": 3488,
      "##9b6c09ad982bb2b4e32": 3489,
      "##eb4bc11349b6c09ad982bb2b4e32": 3490,
      "21a87d6f52c9eb4bc11349b6c09ad982bb2b4e32": 3491,
      "85c": 3492,
      "##c92": 3493,
      "##94d53": 3494,
      "##030": 3495,
      "##ec78": 3496,
      "##421d": 3497,
      "##fb8": 3498,
      "##5bd63": 3499,
      "##e7df": 3500,
      "##67c5": 3501,
      "##0ddf": 3502,
      "##0d52717": 3503,
      "##724": 3504,
      "##050ed": 3505,
      "##11f9": 3506,
      "##cc37": 3507,
      "##d7d0b": 3508,
      "1294f8": 3509,
      "##af4a": 3510,
      "##978ba": 3511,
      "##a1cd6": 3512,
      "##e1fcab": 3513,
      "##8b3f7": 3514,
      "##02be08716": 3515,
      "##dc220d52717": 3516,
      "##43843d7d0b": 3517,
      "1294f843843d7d0b": 3518,
      "##02be08716dc220d52717": 3519,
      "1294f843843d7d0b02be08716dc220d52717": 3520,
      "1294f843843d7d0b02be08716dc220d52717fab6": 3521,
      "2d1": 3522,
      "8bf": 3523,
      "c56": 3524,
      "##9ec": 3525,
      "##aef": 3526,
      "##mn": 3527,
      "##ad1": 3528,
      "##fc55": 3529,
      "##0cdb": 3530,
      "##1a96": 3531,
      "##9ce0a": 3532,
      "##325": 3533,
      "##5dc6": 3534,
      "##f34": 3535,
      "##f033": 3536,
      "##5f9d": 3537,
      "html": 3538,
      "2673": 3539,
      "4a": 3540,
      "5da": 3541,
      "55aab": 3542,
      "81d": 3543,
      "9ae1d": 3544,
      "d8d47": 3545,
      "ee24da": 3546,
      "##c9b": 3547,
      "##9g": 3548,
      "##3k": 3549,
      "##d47a": 3550,
      "##eae": 3551,
      "##86c0": 3552,
      "##02f994": 3553,
      "##94d": 3554,
      "##921bc": 3555,
      "##57e3": 3556,
      "##9700d": 3557,
      "##ec07": 3558,
      "##0c078": 3559,
      "##5b06a": 3560,
      "##e7003": 3561,
      "##e72133": 3562,
      "##0d6e62": 3563,
      "##489b": 3564,
      "##f8754": 3565,
      "##66378": 3566,
      "##7710f2": 3567,
      "##bb2ed": 3568,
      "##78a7": 3569,
      "##8beaf": 3570,
      "##51e11": 3571,
      "##dd5d47": 3572,
      "##f4589f": 3573,
      "##a4080": 3574,
      "##1eac": 3575,
      "manif": 3576,
      "##f9e5e": 3577,
      "##65fc": 3578,
      "##c502f994": 3579,
      "##7e9c": 3580,
      "##102efc": 3581,
      "##10245668": 3582,
      "##9223896": 3583,
      "##f142c87": 3584,
      "##acb6297": 3585,
      "##9d39700d": 3586,
      "##0dde7003": 3587,
      "##585050ed": 3588,
      "##e8b8beaf": 3589,
      "##48277": 3590,
      "##1c7585050ed": 3591,
      "##06a13dd": 3592,
      "##49dd47a": 3593,
      "##86e0d6e62": 3594,
      "##8bdd717": 3595,
      "##5ad2416": 3596,
      "4fc7710f2": 3597,
      "##90020dda8": 3598,
      "b2bb2ed": 3599,
      "##61daacb6297": 3600,
      "##4619d39700d": 3601,
      "##5b62102efc": 3602,
      "##44cca4080": 3603,
      "##5aa086c0": 3604,
      "##ae81": 3605,
      "##e12c502f994": 3606,
      "##66b90020dda8": 3607,
      "##0507dd5d47": 3608,
      "##b36f9e5e": 3609,
      "##584706a13dd": 3610,
      "##ee12d584706a13dd": 3611,
      "##6607f4589f": 3612,
      "##4bd861daacb6297": 3613,
      "eb4e72133": 3614,
      "##56ef5ad2416": 3615,
      "##ac9c0e": 3616,
      "##d9fb921bc": 3617,
      "##bfd88bdd717": 3618,
      "f6249dd47a": 3619,
      "##395f51e11": 3620,
      "##adc70383": 3621,
      "##424fc395f51e11": 3622,
      "##1af1ac9c0e": 3623,
      "55aab56ef5ad2416": 3624,
      "9ae1df142c87": 3625,
      "d8d474bd861daacb6297": 3626,
      "ee24dabfd88bdd717": 3627,
      "##f875444cca4080": 3628,
      "manifest": 3629,
      "##10245668ae81": 3630,
      "##92238966607f4589f": 3631,
      "##0dde70031af1ac9c0e": 3632,
      "##e8b8beaf5b06a": 3633,
      "##1c7585050ede89f": 3634,
      "##86e0d6e620507dd5d47": 3635,
      "4fc7710f286e0d6e620507dd5d47": 3636,
      "b2bb2edb36f9e5e": 3637,
      "##4619d39700de8b8beaf5b06a": 3638,
      "##5b62102efc0dde70031af1ac9c0e": 3639,
      "##e12c502f9940c078": 3640,
      "##66b90020dda85aa086c0": 3641,
      "##ee12d584706a13dd1c7585050ede89f": 3642,
      "eb4e72133ee12d584706a13dd1c7585050ede89f": 3643,
      "##d9fb921bcf875444cca4080": 3644,
      "f6249dd47a424fc395f51e11": 3645,
      "55aab56ef5ad24164619d39700de8b8beaf5b06a": 3646,
      "9ae1df142c875b62102efc0dde70031af1ac9c0e": 3647,
      "d8d474bd861daacb629766b90020dda85aa086c0": 3648,
      "ee24dabfd88bdd717d9fb921bcf875444cca4080": 3649,
      "##92238966607f4589fadc70383": 3650,
      "4fc7710f286e0d6e620507dd5d4710245668ae81": 3651,
      "b2bb2edb36f9e5e92238966607f4589fadc70383": 3652,
      "f6249dd47a424fc395f51e11e12c502f9940c078": 3653,
      "cad3": 3654,
      "fe4": 3655,
      "zh": 3656,
      "##f19": 3657,
      "##uf": 3658,
      "##tor": 3659,
      "##f2b0": 3660,
      "##f2762": 3661,
      "##ad33": 3662,
      "##ad17b1": 3663,
      "##568443": 3664,
      "##56d2ad": 3665,
      "##923d": 3666,
      "##146c": 3667,
      "##0c8b3f7": 3668,
      "##e77b": 3669,
      "##e81aa9": 3670,
      "##9d4fb": 3671,
      "##9ce9b": 3672,
      "##1cfe62": 3673,
      "##1c421d": 3674,
      "##9a01fb": 3675,
      "##5a72": 3676,
      "##388b": 3677,
      "##f6394": 3678,
      "##f6eda": 3679,
      "##950e1": 3680,
      "##e39cb": 3681,
      "##4ab94": 3682,
      "##00123": 3683,
      "##3b94": 3684,
      "##ff5ac": 3685,
      "##ddf242": 3686,
      "##1097": 3687,
      "##834e": 3688,
      "##34e81aa9": 3689,
      "##b4e4c": 3690,
      "##b4ef0c": 3691,
      "##7a9c0d": 3692,
      "##f9031d": 3693,
      "##3f66378": 3694,
      "##c4e1fcab": 3695,
      "##a9172": 3696,
      "##063fb5": 3697,
      "##156ea": 3698,
      "##96614e2": 3699,
      "##f141198": 3700,
      "##51267c5": 3701,
      "##0c294d53": 3702,
      "##9a2b4ef0c": 3703,
      "##534e39cb": 3704,
      "##f1ba9172": 3705,
      "##0dd04956": 3706,
      "##0dd4ab94": 3707,
      "da9a01fb": 3708,
      "##9f7a7e": 3709,
      "##762f141198": 3710,
      "##f716833": 3711,
      "##17404c2": 3712,
      "##15c296": 3713,
      "##9f3b7ec": 3714,
      "##d8bdc8": 3715,
      "##f16a5b": 3716,
      "##ffb7d5c": 3717,
      "##e2bddf242": 3718,
      "##5730ff6": 3719,
      "##f29e7df": 3720,
      "176f16a5b": 3721,
      "##e26dc": 3722,
      "##5910dd4ab94": 3723,
      "##9f6ed8": 3724,
      "##fadd": 3725,
      "##44bcc37": 3726,
      "##07cf29e7df": 3727,
      "##82a5730ff6": 3728,
      "##0fbb46": 3729,
      "##36c17404c2": 3730,
      "##0aa6c84": 3731,
      "theme": 3732,
      "7d07f2": 3733,
      "##1fd628d": 3734,
      "##b66950e1": 3735,
      "##33b634e81aa9": 3736,
      "##1bb7f2762": 3737,
      "##add1bb7f2762": 3738,
      "##951833b634e81aa9": 3739,
      "2c79f6ed8": 3740,
      "##156496614e2": 3741,
      "##d8721cfe62": 3742,
      "5156568443": 3743,
      "3bc1fd628d": 3744,
      "##039cc4e1fcab": 3745,
      "##9b6f83f66378": 3746,
      "33cf716833": 3747,
      "39460dd04956": 3748,
      "##149f063fb5": 3749,
      "##fb795bd63": 3750,
      "85cffb7d5c": 3751,
      "##ec780fbb46": 3752,
      "##af4abbc": 3753,
      "##978ba0c8b3f7": 3754,
      "2673fb795bd63": 3755,
      "cad3039cc4e1fcab": 3756,
      "##f2b0149f063fb5": 3757,
      "##ad17b1f6394": 3758,
      "##56d2add8bdc8": 3759,
      "##923d9f7a7e": 3760,
      "##9d4fb534e39cb": 3761,
      "##1c421d07cf29e7df": 3762,
      "##834e951833b634e81aa9": 3763,
      "##b4e4c834e951833b634e81aa9": 3764,
      "##7a9c0dec780fbb46": 3765,
      "##f9031d156496614e2": 3766,
      "##0c294d537a9c0dec780fbb46": 3767,
      "##9a2b4ef0cf1ba9172": 3768,
      "da9a01fb5910dd4ab94": 3769,
      "##762f141198f6eda": 3770,
      "##15c296156ea": 3771,
      "##9f3b7ec9d4fb534e39cb": 3772,
      "##e2bddf242f9031d156496614e2": 3773,
      "176f16a5b56d2add8bdc8": 3774,
      "##44bcc37bb4": 3775,
      "##82a5730ff6af4abbc": 3776,
      "##36c17404c251267c5": 3777,
      "7d07f29a2b4ef0cf1ba9172": 3778,
      "##b66950e19b6f83f66378": 3779,
      "##add1bb7f27620aa6c84": 3780,
      "2c79f6ed8e2bddf242f9031d156496614e2": 3781,
      "##d8721cfe6215c296156ea": 3782,
      "5156568443f2b0149f063fb5": 3783,
      "3bc1fd628d9f3b7ec9d4fb534e39cb": 3784,
      "33cf716833b66950e19b6f83f66378": 3785,
      "39460dd04956ad17b1f6394": 3786,
      "85cffb7d5cb4e4c834e951833b634e81aa9": 3787,
      "##978ba0c8b3f7762f141198f6eda": 3788,
      "2673fb795bd63978ba0c8b3f7762f141198f6eda": 3789,
      "cad3039cc4e1fcab0c294d537a9c0dec780fbb46": 3790,
      "da9a01fb5910dd4ab94d8721cfe6215c296156ea": 3791,
      "176f16a5b56d2add8bdc8add1bb7f27620aa6c84": 3792,
      "7d07f29a2b4ef0cf1ba917236c17404c251267c5": 3793,
      "2c79f6ed8e2bddf242f9031d156496614e2ff5ac": 3794,
      "5156568443f2b0149f063fb51c421d07cf29e7df": 3795,
      "3bc1fd628d9f3b7ec9d4fb534e39cb923d9f7a7e": 3796,
      "33cf716833b66950e19b6f83f6637844bcc37bb4": 3797,
      "39460dd04956ad17b1f639482a5730ff6af4abbc": 3798,
      "85cffb7d5cb4e4c834e951833b634e81aa99ce9b": 3799,
      "232": 3800,
      "5e533": 3801,
      "e22c": 3802,
      "saf": 3803,
      "##c0a8": 3804,
      "##12e2": 3805,
      "##92ee": 3806,
      "##131b87": 3807,
      "##da514": 3808,
      "##ed4a": 3809,
      "##edbc": 3810,
      "##e7e2b": 3811,
      "##3227": 3812,
      "##5af7": 3813,
      "##82f": 3814,
      "##ba74": 3815,
      "##db6ce8": 3816,
      "##150": 3817,
      "##731d": 3818,
      "##bd136": 3819,
      "##bd1f5a": 3820,
      "##a494": 3821,
      "##4e91": 3822,
      "##ad2bd136": 3823,
      "##0ad8fb00": 3824,
      "##13099": 3825,
      "##5b7131b87": 3826,
      "##46a67": 3827,
      "##ce05b7131b87": 3828,
      "##f0befc1": 3829,
      "##ed38c0a8": 3830,
      "##9ce0a0ad8fb00": 3831,
      "5e533ce05b7131b87": 3832,
      "e22cad2bd136": 3833,
      "##da5149ce0a0ad8fb00": 3834,
      "##db6ce8bd1f5a": 3835,
      "##f0befc19a2": 3836,
      "##ed38c0a8cde": 3837,
      "5e533ce05b7131b87db6ce8bd1f5a": 3838,
      "e22cad2bd136da5149ce0a0ad8fb00": 3839,
      "5e533ce05b7131b87db6ce8bd1f5aed38c0a8cde": 3840,
      "e22cad2bd136da5149ce0a0ad8fb00f0befc19a2": 3841,
      "262": 3842,
      "51b": 3843,
      "89d": 3844,
      "as": 3845,
      "b0e0c": 3846,
      "mp": 3847,
      "##lp": 3848,
      "##xt": 3849,
      "##i2": 3850,
      "##h1": 3851,
      "##m7": 3852,
      "##map": 3853,
      "##t2": 3854,
      "##f2aa": 3855,
      "##9624": 3856,
      "##98e2": 3857,
      "##422ed": 3858,
      "##4743": 3859,
      "##e79b42": 3860,
      "##5c0ea": 3861,
      "##3601c": 3862,
      "##365d62": 3863,
      "##9f972": 3864,
      "##4fecd": 3865,
      "##cb96": 3866,
      "##c754": 3867,
      "##b4422ed": 3868,
      "##e9e3": 3869,
      "##a5e8": 3870,
      "##d889f972": 3871,
      "##1a85c0ea": 3872,
      "##efd4fecd": 3873,
      "##e941a85c0ea": 3874,
      "##1c1a731d": 3875,
      "##5d4ff44": 3876,
      "##d6daf4e": 3877,
      "81de941a85c0ea": 3878,
      "b0e0c1c1a731d": 3879,
      "##e79b42365d62": 3880,
      "##b4422edd889f972": 3881,
      "##efd4fecde79b42365d62": 3882,
      "##5d4ff44b4422edd889f972": 3883,
      "81de941a85c0ea5d4ff44b4422edd889f972": 3884,
      "b0e0c1c1a731defd4fecde79b42365d62": 3885,
      "81de941a85c0ea5d4ff44b4422edd889f972cd5a": 3886,
      "b0e0c1c1a731defd4fecde79b42365d62d6daf4e": 3887,
      "0b": 3888,
      "f36": 3889,
      "##xs": 3890,
      "##33eeb": 3891,
      "##04074": 3892,
      "##175": 3893,
      "##fc628": 3894,
      "##1d77": 3895,
      "##9a65fc": 3896,
      "##f8da": 3897,
      "##910e0": 3898,
      "##f3628": 3899,
      "##3b63": 3900,
      "##b2af": 3901,
      "##e1f8": 3902,
      "##eadbb8": 3903,
      "##53409": 3904,
      "##0cb910e0": 3905,
      "67b2af": 3906,
      "release": 3907,
      "##14120cb910e0": 3908,
      "##149633eeb": 3909,
      "##f3628149633eeb": 3910,
      "##eadbb8f3628149633eeb": 3911,
      "67b2af14120cb910e0": 3912,
      "##eadbb8f3628149633eebb9": 3913,
      "67b2af14120cb910e0eadbb8f3628149633eebb9": 3914,
      "0332": 3915,
      "100": 3916,
      "306": 3917,
      "6c": 3918,
      "##1ea42": 3919,
      "##xa": 3920,
      "##eaa1d": 3921,
      "##9412a": 3922,
      "##56d": 3923,
      "##9762": 3924,
      "##da5b": 3925,
      "##9a6b": 3926,
      "##6619": 3927,
      "##e4baa": 3928,
      "##4c933": 3929,
      "##a79412a": 3930,
      "##73e82": 3931,
      "##e19914": 3932,
      "##4152a": 3933,
      "##fe9713": 3934,
      "##cf13099": 3935,
      "##d5938b": 3936,
      "##326a79412a": 3937,
      "##f1be7d22": 3938,
      "##0f8a494": 3939,
      "##1cae7fd": 3940,
      "##fb200123": 3941,
      "##59a489b": 3942,
      "##ac4e7e2b": 3943,
      "##ef61cae7fd": 3944,
      "9271ea42": 3945,
      "##edccec": 3946,
      "##b45c9a5d": 3947,
      "##d7ab146c": 3948,
      "14165921": 3949,
      "##4573edccec": 3950,
      "5da4c933": 3951,
      "##78a7b45c9a5d": 3952,
      "##4827733a": 3953,
      "fe4d5938b": 3954,
      "##eaa1dcf13099": 3955,
      "##73e82d7ab146c": 3956,
      "##e199140f8a494": 3957,
      "##fe97134827733a": 3958,
      "##326a79412a98": 3959,
      "##f1be7d22326a79412a98": 3960,
      "##fb200123ef61cae7fd": 3961,
      "##59a489b78a7b45c9a5d": 3962,
      "##ac4e7e2b73e82d7ab146c": 3963,
      "9271ea42eaa1dcf13099": 3964,
      "14165921e199140f8a494": 3965,
      "5da4c933fb200123ef61cae7fd": 3966,
      "fe4d5938bac4e7e2b73e82d7ab146c": 3967,
      "9271ea42eaa1dcf13099f1be7d22326a79412a98": 3968,
      "14165921e199140f8a49459a489b78a7b45c9a5d": 3969,
      "5da4c933fb200123ef61cae7fdfe97134827733a": 3970,
      "fe4d5938bac4e7e2b73e82d7ab146c4573edccec": 3971,
      "1c9": 3972,
      "5c754": 3973,
      "##a5d1": 3974,
      "##i6": 3975,
      "##d6dd": 3976,
      "##0992": 3977,
      "##3c3a7": 3978,
      "##ff12bd": 3979,
      "##a249c": 3980,
      "##1502b": 3981,
      "##4f1b": 3982,
      "##f59ac": 3983,
      "##495a": 3984,
      "##819503": 3985,
      "##92283": 3986,
      "##ad24b": 3987,
      "##bbb07": 3988,
      "##e7a1502b": 3989,
      "##e889827": 3990,
      "##c29d72": 3991,
      "##efbde889827": 3992,
      "##4152a3c3a7": 3993,
      "5c754e7a1502b": 3994,
      "##efbde8898274152a3c3a7": 3995,
      "5c754e7a1502befbde8898274152a3c3a7": 3996,
      "5c754e7a1502befbde8898274152a3c3a7ff12bd": 3997,
      "24f": 3998,
      "df5": 3999,
      "##f2ba": 4000,
      "##ad118": 4001,
      "##08ca": 4002,
      "##4226": 4003,
      "##9eda": 4004,
      "##ecfe26dc": 4005,
      "c56ecfe26dc": 4006,
      "##fc628ad118": 4007,
      "##9a65fc7a": 4008,
      "##e4baafc628ad118": 4009,
      "##819503e4baafc628ad118": 4010,
      "c56ecfe26dc819503e4baafc628ad118": 4011,
      "c56ecfe26dc819503e4baafc628ad1189a65fc7a": 4012,
      "02": 4013,
      "7d1a": 4014,
      "a98f": 4015,
      "c7": 4016,
      "c5f9d": 4017,
      "gl": 4018,
      "##366": 4019,
      "##ih": 4020,
      "##f23e": 4021,
      "##924e": 4022,
      "##046c": 4023,
      "##5bf6": 4024,
      "##9d34": 4025,
      "##1dc": 4026,
      "##9b54": 4027,
      "##5dff36": 4028,
      "##37d28": 4029,
      "##91fb": 4030,
      "##3cdef": 4031,
      "##a6edbc": 4032,
      "##235dc6": 4033,
      "##f95c2": 4034,
      "##0270bd37": 4035,
      "##f94d78": 4036,
      "##48d4a32": 4037,
      "##116a6edbc": 4038,
      "##4da04074": 4039,
      "##4ebba74": 4040,
      "##5af0270bd37": 4041,
      "##57b48d4a32": 4042,
      "##eab0ff2aa": 4043,
      "##91f65dff36": 4044,
      "##d28543cdef": 4045,
      "##01141837": 4046,
      "7d1af94d78": 4047,
      "a98f01141837": 4048,
      "c5f9d116a6edbc": 4049,
      "##235dc64ebba74": 4050,
      "##f95c237d28": 4051,
      "##4da0407491f65dff36": 4052,
      "##5af0270bd37eab0ff2aa": 4053,
      "##57b48d4a325af0270bd37eab0ff2aa": 4054,
      "##d28543cdef235dc64ebba74": 4055,
      "7d1af94d7857b48d4a325af0270bd37eab0ff2aa": 4056,
      "a98f011418374da0407491f65dff36": 4057,
      "c5f9d116a6edbcd28543cdef235dc64ebba74": 4058,
      "a98f011418374da0407491f65dff36f95c237d28": 4059,
      "c5f9d116a6edbcd28543cdef235dc64ebba74e2a": 4060,
      "199": 4061,
      "79": 4062,
      "79266": 4063,
      "##8y": 4064,
      "##ef88": 4065,
      "##12c1d": 4066,
      "##16bbb07": 4067,
      "##581": 4068,
      "##58c27": 4069,
      "##fc596": 4070,
      "##fb7": 4071,
      "##1be4f3": 4072,
      "##484f1b": 4073,
      "##3b5e7": 4074,
      "##c272": 4075,
      "##4f554": 4076,
      "##26e66": 4077,
      "17fadd": 4078,
      "##5f92": 4079,
      "##af12c1d": 4080,
      "##d0ad24b": 4081,
      "##d76e6f2": 4082,
      "##e3c4b8": 4083,
      "1379fd": 4084,
      "##45b26e66": 4085,
      "##39de9e3": 4086,
      "##adaa249c": 4087,
      "##668c29d72": 4088,
      "4fc58c27": 4089,
      "##e991ba7": 4090,
      "##18a2fdeb": 4091,
      "##2b56495a": 4092,
      "##33d5fc596": 4093,
      "##16e78a": 4094,
      "##25718a2fdeb": 4095,
      "##53409e3c4b8": 4096,
      "79266668c29d72": 4097,
      "##16bbb0733d5fc596": 4098,
      "##1be4f353409e3c4b8": 4099,
      "##484f1b45b26e66": 4100,
      "##3b5e7484f1b45b26e66": 4101,
      "##4f554d0ad24b": 4102,
      "17faddadaa249c": 4103,
      "##af12c1d25718a2fdeb": 4104,
      "##d76e6f216bbb0733d5fc596": 4105,
      "1379fde991ba7": 4106,
      "4fc58c271be4f353409e3c4b8": 4107,
      "79266668c29d72af12c1d25718a2fdeb": 4108,
      "##3b5e7484f1b45b26e6639de9e3": 4109,
      "##4f554d0ad24b762": 4110,
      "17faddadaa249c3b5e7484f1b45b26e6639de9e3": 4111,
      "##d76e6f216bbb0733d5fc596a5d1": 4112,
      "1379fde991ba7d76e6f216bbb0733d5fc596a5d1": 4113,
      "4fc58c271be4f353409e3c4b84f554d0ad24b762": 4114,
      "79266668c29d72af12c1d25718a2fdeb2b56495a": 4115,
      "##2dc": 4116,
      "##06ab": 4117,
      "##58b4": 4118,
      "##e76d": 4119,
      "##0dc": 4120,
      "##tv": 4121,
      "##e600": 4122,
      "##3a53": 4123,
      "##795c": 4124,
      "##b90b": 4125,
      "a3": 4126,
      "##ka": 4127,
      "##je": 4128,
      "##ee4": 4129,
      "##yo": 4130,
      "##03a7": 4131,
      "##110": 4132,
      "##349": 4133,
      "##e1fd": 4134,
      "##7cfb": 4135,
      "##cket": 4136,
      "##1083": 4137,
      "##f264f": 4138,
      "##02b57": 4139,
      "195": 4140,
      "294": 4141,
      "##0l": 4142,
      "##f97": 4143,
      "##rf": 4144,
      "##zq": 4145,
      "##5bee": 4146,
      "##1b4c": 4147,
      "##9a56": 4148,
      "##fd3c": 4149,
      "##37a": 4150,
      "##ac97": 4151,
      "##f203": 4152,
      "##0707": 4153,
      "##18ba": 4154,
      "##13fd": 4155,
      "##fbb6": 4156,
      "##1c6": 4157,
      "##f88": 4158,
      "##fd67": 4159,
      "##f6e3": 4160,
      "##91ef": 4161,
      "##6912": 4162,
      "##a05b": 4163,
      "##96254": 4164,
      "##e58b": 4165,
      "##rowsing": 4166,
      "f15c": 4167,
      "##xp": 4168,
      "##b08": 4169,
      "##gw": 4170,
      "##52db": 4171,
      "##fc0b": 4172,
      "##5b04": 4173,
      "##e76c": 4174,
      "##0af": 4175,
      "##0a87": 4176,
      "##a2f8": 4177,
      "##24fa": 4178,
      "ko": 4179,
      "##gq": 4180,
      "##1382": 4181,
      "##e6ea": 4182,
      "##828b": 4183,
      "##8742": 4184,
      "##mail": 4185,
      "##088ef": 4186,
      "##dule": 4187,
      "##d879b": 4188,
      "##a4a": 4189,
      "##i7": 4190,
      "##e8f8": 4191,
      "##df4c": 4192,
      "##0cb9b": 4193,
      "150": 4194,
      "du": 4195,
      "ho": 4196,
      "##ker": 4197,
      "##35a": 4198,
      "##1bfa": 4199,
      "##eb4": 4200,
      "##776": 4201,
      "##3a8": 4202,
      "##b297": 4203,
      "##f475c": 4204,
      "2c": 4205,
      "dc": 4206,
      "##sn": 4207,
      "##ad0b": 4208,
      "##ebd879b": 4209,
      "##1d7a7": 4210,
      "##383b": 4211,
      "##222": 4212,
      "##4be4f": 4213,
      "##0fe8": 4214,
      "##51fc": 4215,
      "##2d4be4f": 4216,
      "##13348d": 4217,
      "##eec2d4be4f": 4218,
      "##99710f": 4219,
      "##01b5a": 4220,
      "83ebd879b": 4221,
      "##1a8c99710f": 4222,
      "##1d7a7eec2d4be4f": 4223,
      "##13348d1d7a7eec2d4be4f": 4224,
      "83ebd879b1a8c99710f": 4225,
      "83ebd879b1a8c99710f13348d1d7a7eec2d4be4f": 4226,
      "115": 4227,
      "b5": 4228,
      "##e98": 4229,
      "##zp": 4230,
      "##f704": 4231,
      "##f7a8": 4232,
      "181": 4233,
      "##1b1d": 4234,
      "##f8fc": 4235,
      "##2716": 4236,
      "##1e53": 4237,
      "468": 4238,
      "icon": 4239,
      "##q6": 4240,
      "##832": 4241,
      "##56cb": 4242,
      "##08c8": 4243,
      "##9df5": 4244,
      "##663": 4245,
      "##000": 4246,
      "##kb": 4247,
      "##d8a": 4248,
      "##18d": 4249,
      "##dae7": 4250,
      "##ebrowsing": 4251,
      "safebrowsing": 4252,
      "209": 4253,
      "fa": 4254,
      "##9e7": 4255,
      "##xr": 4256,
      "##an": 4257,
      "##ac0b": 4258,
      "##0a63": 4259,
      "##674": 4260,
      "a8": 4261,
      "po": 4262,
      "##w7": 4263,
      "##adb7": 4264,
      "##964": 4265,
      "##16a": 4266,
      "##537f": 4267,
      "##0b16": 4268,
      "##b2cb": 4269,
      "toolkit": 4270,
      "4d": 4271,
      "##q0": 4272,
      "##lb": 4273,
      "##864a": 4274,
      "##04b": 4275,
      "##03af": 4276,
      "##0ce2": 4277,
      "##ed7c": 4278,
      "##ba866": 4279,
      "##9z": 4280,
      "##v0": 4281,
      "##tb": 4282,
      "##0a3": 4283,
      "##bae2": 4284,
      "577": 4285,
      "en": 4286,
      "##a52": 4287,
      "##t7": 4288,
      "##0ce03": 4289,
      "##5bc1": 4290,
      "##46b": 4291,
      "##01ec": 4292,
      "##c2a": 4293,
      "python2": 4294,
      "##utd": 4295,
      "ag": 4296,
      "##xm": 4297,
      "##u7": 4298,
      "##945": 4299,
      "##12e5b": 4300,
      "##b10a": 4301,
      "sy": 4302,
      "##c0f": 4303,
      "##j2": 4304,
      "##wv": 4305,
      "##0246": 4306,
      "##5888": 4307,
      "##5c6": 4308,
      "##5d3": 4309,
      "##dc3": 4310,
      "0aa": 4311,
      "##q7": 4312,
      "##w1": 4313,
      "##f71": 4314,
      "##9c43": 4315,
      "##7198e2": 4316,
      "##101": 4317,
      "motd": 4318,
      "##5858": 4319,
      "##fbc": 4320,
      "##7738": 4321,
      "##4ca4": 4322,
      "##cc7": 4323,
      "##f91": 4324,
      "##w2": 4325,
      "##gp": 4326,
      "##0443": 4327,
      "##93f4": 4328,
      "##d9f7": 4329,
      "hwe": 4330,
      "##9f8": 4331,
      "##091": 4332,
      "##ff3": 4333,
      "##n3": 4334,
      "##e78b": 4335,
      "##4dac": 4336,
      "##4d57": 4337,
      "##289": 4338,
      "##ontent": 4339,
      "nl": 4340,
      "##1467": 4341,
      "##ator": 4342,
      "by": 4343,
      "##9da": 4344,
      "##155": 4345,
      "##i8": 4346,
      "##5777": 4347,
      "##1c4c": 4348,
      "##48a": 4349,
      "##f4ec": 4350,
      "##u2": 4351,
      "##5r": 4352,
      "##i3": 4353,
      "##fc35b": 4354,
      "##1a47": 4355,
      "##baaa": 4356,
      "##59e8": 4357,
      "##load": 4358,
      "##18638": 4359,
      "##ej": 4360,
      "##aad": 4361,
      "##i1": 4362,
      "##0ca7": 4363,
      "##9a4": 4364,
      "##387": 4365,
      "##1012": 4366,
      "exo": 4367,
      "808": 4368,
      "str": 4369,
      "##412": 4370,
      "##ace": 4371,
      "##939": 4372,
      "##ec4f": 4373,
      "##9818": 4374,
      "##0cc": 4375,
      "##3777": 4376,
      "gc": 4377,
      "##q3": 4378,
      "##549": 4379,
      "##98c2": 4380,
      "##73d": 4381,
      "##fv": 4382,
      "##w6": 4383,
      "##070a": 4384,
      "jpg": 4385,
      "ly": 4386,
      "ope": 4387,
      "##ef96": 4388,
      "##08b8": 4389,
      "##58ec": 4390,
      "##ed7b": 4391,
      "gv": 4392,
      "na": 4393,
      "##n5": 4394,
      "##z4": 4395,
      "##02b7": 4396,
      "##4227": 4397,
      "##e74": 4398,
      "##e8d4": 4399,
      "##c6c": 4400,
      "277": 4401,
      "##t3": 4402,
      "##zv": 4403,
      "##8678": 4404,
      "##08f3": 4405,
      "##5733": 4406,
      "##1453": 4407,
      "##ccc": 4408,
      "##0986": 4409,
      "c40a": 4410,
      "d8": 4411,
      "e8": 4412,
      "lk": 4413,
      "sb": 4414,
      "##41c": 4415,
      "##aee": 4416,
      "##zm": 4417,
      "##0438": 4418,
      "##c696": 4419,
      "200": 4420,
      "eu": 4421,
      "int": 4422,
      "##99c": 4423,
      "##f46": 4424,
      "##7d47": 4425,
      "##cs": 4426,
      "##q1": 4427,
      "##908": 4428,
      "##lm": 4429,
      "##o2": 4430,
      "##z6": 4431,
      "##5cc": 4432,
      "ty": 4433,
      "##90c": 4434,
      "##p2": 4435,
      "##ba5c": 4436,
      "##ff9c": 4437,
      "##2a32": 4438,
      "##ae86": 4439,
      "30a": 4440,
      "##5fb": 4441,
      "##d42": 4442,
      "##gb": 4443,
      "##13f7": 4444,
      "##5c21": 4445,
      "##365": 4446,
      "##263": 4447,
      "##u3": 4448,
      "##u6": 4449,
      "##zs": 4450,
      "##9777": 4451,
      "##e287": 4452,
      "##f3b": 4453,
      "##b85b": 4454,
      "##log": 4455,
      "##utdow": 4456,
      "c96": 4457,
      "mlo": 4458,
      "##lr": 4459,
      "##uh": 4460,
      "##efe7": 4461,
      "##025": 4462,
      "##0238": 4463,
      "##165": 4464,
      "##97a0": 4465,
      "##e72": 4466,
      "##bbd8": 4467,
      "##df5": 4468,
      "##7cd8": 4469,
      "##w3": 4470,
      "##161": 4471,
      "##487": 4472,
      "##0f05": 4473,
      "##n8": 4474,
      "##e55": 4475,
      "##12feb": 4476,
      "##925a": 4477,
      "##1778": 4478,
      "##0c76bd": 4479,
      "##fa6e": 4480,
      "##888": 4481,
      "##3ab": 4482,
      "##5157": 4483,
      "##e0ef96": 4484,
      "##410c76bd": 4485,
      "##6d410c76bd": 4486,
      "##mand": 4487,
      "##036e0ef96": 4488,
      "ed08f3": 4489,
      "##df4c6d410c76bd": 4490,
      "##12febdf4c6d410c76bd": 4491,
      "##fa6e12febdf4c6d410c76bd": 4492,
      "##036e0ef96dd": 4493,
      "ed08f3fa6e12febdf4c6d410c76bd": 4494,
      "ed08f3fa6e12febdf4c6d410c76bd036e0ef96dd": 4495,
      "1d": 4496,
      "7eb": 4497,
      "ar": 4498,
      "##mes": 4499,
      "##t8": 4500,
      "##ac7a": 4501,
      "##961": 4502,
      "##53b": 4503,
      "##0b0c": 4504,
      "pam": 4505,
      "zk": 4506,
      "##505d": 4507,
      "##bc3": 4508,
      "modules": 4509,
      "145": 4510,
      "291": 4511,
      "bf": 4512,
      "##j4": 4513,
      "##0o": 4514,
      "##f21": 4515,
      "##070e": 4516,
      "109": 4517,
      "##5fd": 4518,
      "##bc8": 4519,
      "##m1": 4520,
      "##s6": 4521,
      "##0214": 4522,
      "##0472": 4523,
      "##e79": 4524,
      "##e20f": 4525,
      "##870": 4526,
      "##ff16": 4527,
      "##9096": 4528,
      "8b": 4529,
      "91": 4530,
      "im": 4531,
      "##r2": 4532,
      "##b3a": 4533,
      "##eq": 4534,
      "##f786": 4535,
      "##f82": 4536,
      "gnome": 4537,
      "149": 4538,
      "a0": 4539,
      "##fq": 4540,
      "##d84": 4541,
      "##ea3": 4542,
      "##32a": 4543,
      "##e4fb": 4544,
      "fd": 4545,
      "##fp": 4546,
      "##12a6": 4547,
      "##a7dd": 4548,
      "##8ddc": 4549,
      "tw": 4550,
      "##m6": 4551,
      "##08cc": 4552,
      "##0344": 4553,
      "##038b": 4554,
      "##9788": 4555,
      "##4252": 4556,
      "##42b6": 4557,
      "##375": 4558,
      "##3bd": 4559,
      "##df12": 4560,
      "##aa04": 4561,
      "##f443": 4562,
      "##rans": 4563,
      "119": 4564,
      "159": 4565,
      "210": 4566,
      "ja": 4567,
      "##0g": 4568,
      "##f01": 4569,
      "##9763": 4570,
      "##9d4": 4571,
      "##363f": 4572,
      "5a86": 4573,
      "##lw": 4574,
      "##m3": 4575,
      "##m8": 4576,
      "##yr": 4577,
      "##zi": 4578,
      "##d8d": 4579,
      "##ea5": 4580,
      "##eb0": 4581,
      "##1db32": 4582,
      "##660": 4583,
      "##00f6": 4584,
      "##74e2": 4585,
      "##81f8": 4586,
      "exit": 4587,
      "##91df443": 4588,
      "##e56a7dd": 4589,
      "##4e65e5": 4590,
      "##185291df443": 4591,
      "##10978ddc": 4592,
      "##4226e56a7dd": 4593,
      "5a864226e56a7dd": 4594,
      "##185291df44310978ddc": 4595,
      "5a864226e56a7dd185291df44310978ddc": 4596,
      "5a864226e56a7dd185291df44310978ddc4e65e5": 4597,
      "4dd": 4598,
      "607": 4599,
      "767": 4600,
      "##j7": 4601,
      "##0d8": 4602,
      "##ea8": 4603,
      "##cc6": 4604,
      "##0e3": 4605,
      "##m5": 4606,
      "##mh": 4607,
      "##efed": 4608,
      "##9dc": 4609,
      "##9bf": 4610,
      "##f8b": 4611,
      "##37b": 4612,
      "##ba8": 4613,
      "socket": 4614,
      "##sv": 4615,
      "##9437": 4616,
      "##1606": 4617,
      "##13d": 4618,
      "##5b8a": 4619,
      "##1a3": 4620,
      "##e46": 4621,
      "##4b5": 4622,
      "##caa": 4623,
      "##b41a": 4624,
      "788": 4625,
      "##eff": 4626,
      "shutdow": 4627,
      "##5bea": 4628,
      "##4302": 4629,
      "##778": 4630,
      "##8b7": 4631,
      "##51f8": 4632,
      "##cb35b": 4633,
      "minator": 4634,
      "mloca": 4635,
      "par": 4636,
      "##j3": 4637,
      "##r3": 4638,
      "##u5": 4639,
      "##9507": 4640,
      "uk": 4641,
      "##efc2": 4642,
      "##9297": 4643,
      "##0813": 4644,
      "##571": 4645,
      "##96b": 4646,
      "##1c32": 4647,
      "##5a62": 4648,
      "##f4f2": 4649,
      "##cd1c": 4650,
      "##8cd7": 4651,
      "##leme": 4652,
      "##2ed8": 4653,
      "796": 4654,
      "90": 4655,
      "ny": 4656,
      "wg": 4657,
      "##3ef": 4658,
      "##x8": 4659,
      "##pf": 4660,
      "##1814": 4661,
      "##5aba": 4662,
      "##f8f78": 4663,
      "##7273": 4664,
      "##0586": 4665,
      "##56887": 4666,
      "988": 4667,
      "ug": 4668,
      "##q5": 4669,
      "##jh": 4670,
      "##d01": 4671,
      "##oi": 4672,
      "##zh": 4673,
      "##1b8": 4674,
      "##9ca": 4675,
      "##9186": 4676,
      "##780": 4677,
      "##erv": 4678,
      "init": 4679,
      "d5": 4680,
      "fi": 4681,
      "rk": 4682,
      "##4k": 4683,
      "##p1": 4684,
      "##p7": 4685,
      "##3372": 4686,
      "##1353": 4687,
      "##1377": 4688,
      "##b65": 4689,
      "lc": 4690,
      "##n1": 4691,
      "##rv": 4692,
      "##93c": 4693,
      "##fd0": 4694,
      "##0052": 4695,
      "9b": 4696,
      "ig": 4697,
      "##lh": 4698,
      "##x7": 4699,
      "##86b": 4700,
      "##1877": 4701,
      "##9316": 4702,
      "##ed3": 4703,
      "##9517": 4704,
      "##c28": 4705,
      "##d7b": 4706,
      "507": 4707,
      "hy": 4708,
      "vk": 4709,
      "##9e0": 4710,
      "##e0c": 4711,
      "##zf": 4712,
      "##0644": 4713,
      "##464": 4714,
      "##015": 4715,
      "##ee1c": 4716,
      "##b27": 4717,
      "binary": 4718,
      "def": 4719,
      "hg": 4720,
      "##jv": 4721,
      "##242": 4722,
      "##1777": 4723,
      "##1891": 4724,
      "##4381": 4725,
      "##721": 4726,
      "##22d": 4727,
      "##store": 4728,
      "110": 4729,
      "fg": 4730,
      "xk": 4731,
      "##j9": 4732,
      "##0r": 4733,
      "##4fd": 4734,
      "##z7": 4735,
      "##0856": 4736,
      "##9744": 4737,
      "##9368": 4738,
      "##425a": 4739,
      "##f8e2": 4740,
      "##3736": 4741,
      "##e39": 4742,
      "##0513": 4743,
      "##rlc": 4744,
      "742": 4745,
      "fx": 4746,
      "##356": 4747,
      "##fe0": 4748,
      "##ef1": 4749,
      "##0738": 4750,
      "##0454": 4751,
      "##1cdd": 4752,
      "##3cb": 4753,
      "342": 4754,
      "942": 4755,
      "##z8": 4756,
      "##98c6": 4757,
      "##fd1": 4758,
      "##99e7": 4759,
      "##4be": 4760,
      "##c2c": 4761,
      "##87b": 4762,
      "##151": 4763,
      "##f32": 4764,
      "##oe": 4765,
      "##lass": 4766,
      "##5454": 4767,
      "##1704": 4768,
      "##4294": 4769,
      "##6704": 4770,
      "##9596": 4771,
      "##7842": 4772,
      "##4b4c": 4773,
      "##d6d": 4774,
      "##ee0b": 4775,
      "##7362": 4776,
      "03": 4777,
      "986": 4778,
      "au": 4779,
      "br": 4780,
      "ek": 4781,
      "ic": 4782,
      "##q9": 4783,
      "##j1": 4784,
      "##yw": 4785,
      "##s2": 4786,
      "##1222": 4787,
      "##535": 4788,
      "##fce": 4789,
      "##1dd": 4790,
      "##376": 4791,
      "##b26": 4792,
      "icons": 4793,
      "140": 4794,
      "bg": 4795,
      "mmap": 4796,
      "##b42": 4797,
      "##94e": 4798,
      "##5258": 4799,
      "##eca": 4800,
      "##4365": 4801,
      "##383": 4802,
      "##0095": 4803,
      "##8117": 4804,
      "25": 4805,
      "446": 4806,
      "c2": 4807,
      "el": 4808,
      "qt": 4809,
      "##j6": 4810,
      "##m2": 4811,
      "##zu": 4812,
      "##48b": 4813,
      "##48bb": 4814,
      "##e6d6": 4815,
      "##ce0d": 4816,
      "hx": 4817,
      "jx": 4818,
      "##125": 4819,
      "##965": 4820,
      "##9606": 4821,
      "##9314": 4822,
      "##5a77": 4823,
      "##ba9b": 4824,
      "data": 4825,
      "275": 4826,
      "544": 4827,
      "fsb": 4828,
      "pg": 4829,
      "##aa8": 4830,
      "##t6": 4831,
      "##ric": 4832,
      "##ea2": 4833,
      "##5353": 4834,
      "##9d55": 4835,
      "##0053": 4836,
      "1a": 4837,
      "190": 4838,
      "b3": 4839,
      "pt": 4840,
      "##1f6": 4841,
      "##f44": 4842,
      "##p8": 4843,
      "##86e2": 4844,
      "##5423": 4845,
      "##9618": 4846,
      "##9302": 4847,
      "##473c": 4848,
      "##5be3": 4849,
      "##9bca": 4850,
      "##fde2": 4851,
      "##781": 4852,
      "##90e2": 4853,
      "##xi": 4854,
      "##ea66": 4855,
      "##8603": 4856,
      "##5637": 4857,
      "##1394": 4858,
      "##fb4": 4859,
      "##f707": 4860,
      "##9114": 4861,
      "##05e": 4862,
      "##0093": 4863,
      "##5f06": 4864,
      "##9fde6": 4865,
      "bk": 4866,
      "##9ef": 4867,
      "##717": 4868,
      "##yb": 4869,
      "##oq": 4870,
      "##ted": 4871,
      "##1223": 4872,
      "##0db4": 4873,
      "##5aea": 4874,
      "##e3fd": 4875,
      "##d6f8": 4876,
      "##1053": 4877,
      "##83d": 4878,
      "##da89b": 4879,
      "##9fc2": 4880,
      "8a6": 4881,
      "eg": 4882,
      "sl": 4883,
      "##09f": 4884,
      "##v9": 4885,
      "##121": 4886,
      "##0699": 4887,
      "##955": 4888,
      "##1096": 4889,
      "##df4f": 4890,
      "##a40b": 4891,
      "394": 4892,
      "lx": 4893,
      "##282": 4894,
      "##f57": 4895,
      "##5s": 4896,
      "##dr": 4897,
      "##1293": 4898,
      "##9647": 4899,
      "##9754": 4900,
      "##531": 4901,
      "##e8c": 4902,
      "##f3c": 4903,
      "##cb8": 4904,
      "##274e": 4905,
      "##3fe0": 4906,
      "jc": 4907,
      "jg": 4908,
      "##9698": 4909,
      "##0343": 4910,
      "##061": 4911,
      "##1664": 4912,
      "##1383": 4913,
      "##987d": 4914,
      "##edb": 4915,
      "##6259": 4916,
      "##9c4": 4917,
      "##fa7": 4918,
      "##9117": 4919,
      "##9554": 4920,
      "##5083": 4921,
      "##pat": 4922,
      "##fe3": 4923,
      "##69b": 4924,
      "##96d": 4925,
      "##17d2": 4926,
      "##42f": 4927,
      "##edd": 4928,
      "##664": 4929,
      "##e654": 4930,
      "##e3acfc": 4931,
      "##ca2": 4932,
      "##b272": 4933,
      "124": 4934,
      "##df4": 4935,
      "##e0fc": 4936,
      "862": 4937,
      "bx": 4938,
      "jk": 4939,
      "##9w": 4940,
      "##e9f": 4941,
      "##ept": 4942,
      "##s3": 4943,
      "##t1": 4944,
      "##9287": 4945,
      "##0894": 4946,
      "##roker": 4947,
      "##e63f": 4948,
      "##8252": 4949,
      "##440b": 4950,
      "##9993": 4951,
      "##cbc": 4952,
      "##c74a": 4953,
      "##bf11": 4954,
      "fsbroker": 4955,
      "dk": 4956,
      "dy": 4957,
      "nk": 4958,
      "sup": 4959,
      "##0j": 4960,
      "##p3": 4961,
      "##ef8": 4962,
      "##f2d1": 4963,
      "##0226": 4964,
      "##5647": 4965,
      "##0367": 4966,
      "##ece2": 4967,
      "##0cfa": 4968,
      "##eb57": 4969,
      "##0d92": 4970,
      "##fa05": 4971,
      "##99fb": 4972,
      "##5594": 4973,
      "##d61": 4974,
      "action": 4975,
      "strea": 4976,
      "350": 4977,
      "al": 4978,
      "sq": 4979,
      "vfs": 4980,
      "wk": 4981,
      "zy": 4982,
      "##ac1": 4983,
      "##0752": 4984,
      "##1414": 4985,
      "##17e4": 4986,
      "##18ab": 4987,
      "##971": 4988,
      "##5202": 4989,
      "##5815": 4990,
      "##ed4": 4991,
      "##1bb": 4992,
      "##1ba2": 4993,
      "##eb8": 4994,
      "##3742": 4995,
      "##ba64": 4996,
      "##0556": 4997,
      "##5551": 4998,
      "##e5e8": 4999
    }
  }
}